unsigned char model_tflite[] = {
		0x1c, 0x00, 0x00, 0x00, 0x54, 0x46, 0x4c, 0x33, 0x14, 0x00, 0x20, 0x00,
		0x1c, 0x00, 0x18, 0x00, 0x14, 0x00, 0x10, 0x00, 0x0c, 0x00, 0x00, 0x00,
		0x08, 0x00, 0x04, 0x00, 0x14, 0x00, 0x00, 0x00, 0x1c, 0x00, 0x00, 0x00,
		0x8c, 0x00, 0x00, 0x00, 0xe4, 0x00, 0x00, 0x00, 0x00, 0x41, 0x00, 0x00,
		0x10, 0x41, 0x00, 0x00, 0x54, 0x4d, 0x00, 0x00, 0x03, 0x00, 0x00, 0x00,
		0x01, 0x00, 0x00, 0x00, 0x04, 0x00, 0x00, 0x00, 0x42, 0xbd, 0xff, 0xff,
		0x0c, 0x00, 0x00, 0x00, 0x1c, 0x00, 0x00, 0x00, 0x3c, 0x00, 0x00, 0x00,
		0x0f, 0x00, 0x00, 0x00, 0x73, 0x65, 0x72, 0x76, 0x69, 0x6e, 0x67, 0x5f,
		0x64, 0x65, 0x66, 0x61, 0x75, 0x6c, 0x74, 0x00, 0x01, 0x00, 0x00, 0x00,
		0x04, 0x00, 0x00, 0x00, 0x90, 0xff, 0xff, 0xff, 0x16, 0x00, 0x00, 0x00,
		0x04, 0x00, 0x00, 0x00, 0x08, 0x00, 0x00, 0x00, 0x6f, 0x75, 0x74, 0x70,
		0x75, 0x74, 0x5f, 0x30, 0x00, 0x00, 0x00, 0x00, 0x01, 0x00, 0x00, 0x00,
		0x04, 0x00, 0x00, 0x00, 0x02, 0xc0, 0xff, 0xff, 0x04, 0x00, 0x00, 0x00,
		0x0c, 0x00, 0x00, 0x00, 0x6b, 0x65, 0x72, 0x61, 0x73, 0x5f, 0x74, 0x65,
		0x6e, 0x73, 0x6f, 0x72, 0x00, 0x00, 0x00, 0x00, 0x02, 0x00, 0x00, 0x00,
		0x34, 0x00, 0x00, 0x00, 0x04, 0x00, 0x00, 0x00, 0xdc, 0xff, 0xff, 0xff,
		0x19, 0x00, 0x00, 0x00, 0x04, 0x00, 0x00, 0x00, 0x13, 0x00, 0x00, 0x00,
		0x43, 0x4f, 0x4e, 0x56, 0x45, 0x52, 0x53, 0x49, 0x4f, 0x4e, 0x5f, 0x4d,
		0x45, 0x54, 0x41, 0x44, 0x41, 0x54, 0x41, 0x00, 0x08, 0x00, 0x0c, 0x00,
		0x08, 0x00, 0x04, 0x00, 0x08, 0x00, 0x00, 0x00, 0x18, 0x00, 0x00, 0x00,
		0x04, 0x00, 0x00, 0x00, 0x13, 0x00, 0x00, 0x00, 0x6d, 0x69, 0x6e, 0x5f,
		0x72, 0x75, 0x6e, 0x74, 0x69, 0x6d, 0x65, 0x5f, 0x76, 0x65, 0x72, 0x73,
		0x69, 0x6f, 0x6e, 0x00, 0x1a, 0x00, 0x00, 0x00, 0x18, 0x40, 0x00, 0x00,
		0x10, 0x40, 0x00, 0x00, 0x80, 0x3f, 0x00, 0x00, 0xe8, 0x3e, 0x00, 0x00,
		0x98, 0x3e, 0x00, 0x00, 0x84, 0x3e, 0x00, 0x00, 0x68, 0x3e, 0x00, 0x00,
		0x4c, 0x3e, 0x00, 0x00, 0x3c, 0x16, 0x00, 0x00, 0xac, 0x11, 0x00, 0x00,
		0x1c, 0x11, 0x00, 0x00, 0x0c, 0x01, 0x00, 0x00, 0xf8, 0x00, 0x00, 0x00,
		0xe4, 0x00, 0x00, 0x00, 0xdc, 0x00, 0x00, 0x00, 0xd4, 0x00, 0x00, 0x00,
		0xcc, 0x00, 0x00, 0x00, 0xc4, 0x00, 0x00, 0x00, 0xbc, 0x00, 0x00, 0x00,
		0xb4, 0x00, 0x00, 0x00, 0xac, 0x00, 0x00, 0x00, 0xa4, 0x00, 0x00, 0x00,
		0x9c, 0x00, 0x00, 0x00, 0x94, 0x00, 0x00, 0x00, 0x74, 0x00, 0x00, 0x00,
		0x04, 0x00, 0x00, 0x00, 0xe6, 0xc0, 0xff, 0xff, 0x04, 0x00, 0x00, 0x00,
		0x60, 0x00, 0x00, 0x00, 0x10, 0x00, 0x00, 0x00, 0x00, 0x00, 0x00, 0x00,
		0x08, 0x00, 0x0e, 0x00, 0x08, 0x00, 0x04, 0x00, 0x08, 0x00, 0x00, 0x00,
		0x10, 0x00, 0x00, 0x00, 0x24, 0x00, 0x00, 0x00, 0x00, 0x00, 0x06, 0x00,
		0x08, 0x00, 0x04, 0x00, 0x06, 0x00, 0x00, 0x00, 0x04, 0x00, 0x00, 0x00,
		0x00, 0x00, 0x00, 0x00, 0x0c, 0x00, 0x18, 0x00, 0x14, 0x00, 0x10, 0x00,
		0x0c, 0x00, 0x04, 0x00, 0x0c, 0x00, 0x00, 0x00, 0xb4, 0x88, 0x6d, 0xf5,
		0x1d, 0x4c, 0xf7, 0x1f, 0x02, 0x00, 0x00, 0x00, 0x02, 0x00, 0x00, 0x00,
		0x04, 0x00, 0x00, 0x00, 0x06, 0x00, 0x00, 0x00, 0x32, 0x2e, 0x32, 0x30,
		0x2e, 0x30, 0x00, 0x00, 0x52, 0xc1, 0xff, 0xff, 0x04, 0x00, 0x00, 0x00,
		0x10, 0x00, 0x00, 0x00, 0x31, 0x2e, 0x31, 0x34, 0x2e, 0x30, 0x00, 0x00,
		0x00, 0x00, 0x00, 0x00, 0x00, 0x00, 0x00, 0x00, 0xb4, 0xb4, 0xff, 0xff,
		0xb8, 0xb4, 0xff, 0xff, 0xbc, 0xb4, 0xff, 0xff, 0xc0, 0xb4, 0xff, 0xff,
		0xc4, 0xb4, 0xff, 0xff, 0xc8, 0xb4, 0xff, 0xff, 0xcc, 0xb4, 0xff, 0xff,
		0xd0, 0xb4, 0xff, 0xff, 0xd4, 0xb4, 0xff, 0xff, 0xd8, 0xb4, 0xff, 0xff,
		0x96, 0xc1, 0xff, 0xff, 0x04, 0x00, 0x00, 0x00, 0x04, 0x00, 0x00, 0x00,
		0xfd, 0xff, 0xff, 0xff, 0xa6, 0xc1, 0xff, 0xff, 0x04, 0x00, 0x00, 0x00,
		0x04, 0x00, 0x00, 0x00, 0x01, 0x00, 0x00, 0x00, 0xb6, 0xc1, 0xff, 0xff,
		0x04, 0x00, 0x00, 0x00, 0x00, 0x10, 0x00, 0x00, 0x70, 0xb8, 0x0b, 0x3e,
		0x47, 0x00, 0x37, 0x3e, 0xde, 0x94, 0xdc, 0x3d, 0x40, 0xc9, 0x59, 0x3e,
		0x60, 0x3d, 0x7c, 0xbe, 0xfb, 0xe2, 0x55, 0x3e, 0x39, 0x97, 0xdd, 0xbd,
		0x36, 0x8b, 0x92, 0xbe, 0x85, 0x1e, 0x87, 0xbe, 0x91, 0x17, 0xdc, 0x3c,
		0x5e, 0x06, 0xa3, 0xbe, 0x1b, 0x00, 0x03, 0xbd, 0x85, 0xd7, 0xe5, 0xbc,
		0x16, 0x0b, 0x61, 0xbe, 0x14, 0x11, 0x6f, 0x3d, 0xbb, 0x6a, 0xb3, 0xbd,
		0x33, 0xed, 0x94, 0xbc, 0xcb, 0x5d, 0x9f, 0xbe, 0x1a, 0x54, 0x9c, 0x3e,
		0x48, 0xc7, 0x9c, 0xbe, 0xc8, 0x01, 0x21, 0x3e, 0xf2, 0x98, 0x33, 0x3e,
		0x9a, 0x9b, 0x29, 0x3d, 0x02, 0xcf, 0x6e, 0x3e, 0x27, 0xe9, 0x58, 0x3e,
		0x94, 0xd2, 0x51, 0x3e, 0xbe, 0xe0, 0x1f, 0xbe, 0xff, 0x54, 0xdd, 0x3d,
		0x4a, 0x70, 0xc3, 0x36, 0x4c, 0x9c, 0x11, 0xbe, 0xa4, 0x4d, 0x43, 0x3e,
		0x2b, 0x85, 0x81, 0x3e, 0xf1, 0x83, 0x21, 0x3e, 0x80, 0xc1, 0x14, 0x3e,
		0x3d, 0x65, 0x39, 0xbd, 0x1e, 0x80, 0x09, 0xbe, 0x18, 0xbf, 0x50, 0x3e,
		0xed, 0x35, 0x69, 0x3d, 0x70, 0x7e, 0x46, 0x3e, 0xfd, 0x2e, 0x09, 0xbd,
		0xbc, 0x93, 0xa9, 0xbd, 0xb5, 0x46, 0xa4, 0xbe, 0xb5, 0x95, 0x03, 0x3d,
		0x8b, 0x0e, 0x4d, 0xbd, 0xf5, 0xa2, 0xb2, 0x3d, 0x1e, 0xb8, 0x90, 0x3e,
		0xe0, 0xde, 0xae, 0xbe, 0x3c, 0x7e, 0x7f, 0xbe, 0xe5, 0xaf, 0x16, 0xbe,
		0xe2, 0xd0, 0x0d, 0xbd, 0xff, 0xe4, 0x5f, 0xbe, 0x48, 0x72, 0x40, 0xbe,
		0xb0, 0xdf, 0x42, 0x3d, 0x72, 0x29, 0x92, 0xbd, 0x0c, 0x1b, 0x4a, 0x3e,
		0xd3, 0xec, 0xca, 0xbd, 0x34, 0x10, 0xa0, 0xbe, 0x10, 0x90, 0x45, 0xbe,
		0xb2, 0xa5, 0x76, 0x3e, 0xa2, 0x00, 0xba, 0x3d, 0xc5, 0x74, 0x37, 0x3e,
		0x80, 0xb2, 0x8a, 0x3e, 0x47, 0x13, 0xec, 0x3d, 0x54, 0xf1, 0x79, 0xbc,
		0x1e, 0x03, 0x34, 0xbe, 0x8d, 0x24, 0xf5, 0xbd, 0x2d, 0x68, 0x19, 0x3d,
		0x2d, 0xef, 0x8f, 0x3e, 0xcc, 0x89, 0x9d, 0x3d, 0x3b, 0xf7, 0x81, 0xbe,
		0x8a, 0xbe, 0xfa, 0xbd, 0xc7, 0x6f, 0x85, 0x3e, 0xe0, 0xbf, 0xd3, 0x3c,
		0x4e, 0x83, 0x93, 0x3d, 0xe5, 0xe9, 0x70, 0x3e, 0x52, 0x87, 0x81, 0x3d,
		0xe4, 0x10, 0xe7, 0xbd, 0xe7, 0x4b, 0x65, 0xbd, 0xd8, 0x7d, 0xda, 0x3d,
		0xa1, 0xff, 0x6a, 0xbe, 0xb6, 0xb5, 0x8e, 0x3e, 0xb5, 0x20, 0x9c, 0xbd,
		0xf7, 0xac, 0x73, 0x3d, 0x89, 0x1f, 0xb4, 0xbd, 0xe1, 0xff, 0x8c, 0xbe,
		0x60, 0xf3, 0x56, 0x3e, 0xa5, 0xb9, 0xa3, 0xbc, 0x62, 0xc4, 0x73, 0xbe,
		0x64, 0x5a, 0xa8, 0xbc, 0x46, 0x58, 0x98, 0x3e, 0x68, 0x4e, 0x35, 0x3e,
		0x24, 0x8e, 0x63, 0xbe, 0x55, 0xbc, 0x91, 0xbd, 0x11, 0x09, 0x9f, 0xbd,
		0xe1, 0xa6, 0x2a, 0x3e, 0x86, 0x0f, 0xec, 0xbd, 0xac, 0x18, 0x99, 0x3d,
		0x68, 0x07, 0xa1, 0xbe, 0x9a, 0xc4, 0x53, 0x3d, 0xc3, 0x2c, 0x82, 0x3e,
		0xca, 0xfe, 0x6f, 0xbe, 0x8b, 0xd2, 0x87, 0x3e, 0x82, 0xdf, 0xb5, 0xbc,
		0x3e, 0x84, 0x1e, 0x3e, 0x83, 0x24, 0xd1, 0xbd, 0x68, 0xc4, 0x2e, 0xbe,
		0x63, 0x33, 0x91, 0xbe, 0x89, 0xd0, 0x91, 0xbe, 0xd7, 0x38, 0xcb, 0x3d,
		0x69, 0x67, 0x37, 0x3e, 0xc3, 0xbe, 0x6e, 0xbe, 0x95, 0x7f, 0xc8, 0xbd,
		0x11, 0xbf, 0xc8, 0x3c, 0xeb, 0x74, 0x4b, 0xbe, 0x31, 0x9c, 0x81, 0xbe,
		0x92, 0xdf, 0x56, 0xbc, 0x66, 0x39, 0x1b, 0x3e, 0xc3, 0x0e, 0x78, 0x3e,
		0x7a, 0x44, 0xb2, 0x3d, 0x78, 0xac, 0xe5, 0xbd, 0xc5, 0x75, 0xba, 0x3d,
		0x67, 0x67, 0x9f, 0x3d, 0xe7, 0x8c, 0x40, 0xbd, 0x5c, 0x04, 0x94, 0x3e,
		0xc5, 0xd4, 0x02, 0xbe, 0xc0, 0xa5, 0x4b, 0xbe, 0xb1, 0x83, 0xca, 0x3c,
		0xf7, 0x04, 0x82, 0xbd, 0x36, 0x21, 0x8e, 0x3e, 0xb7, 0x5a, 0x91, 0xbd,
		0x65, 0xd1, 0x65, 0xbe, 0x83, 0x45, 0x58, 0xbe, 0x57, 0x78, 0xa1, 0xbc,
		0xfa, 0x55, 0x8c, 0xbe, 0x5e, 0x43, 0xbc, 0xbd, 0x38, 0xca, 0xac, 0x3d,
		0x50, 0xd3, 0x5e, 0xbe, 0xf1, 0x4f, 0xe0, 0xbd, 0x08, 0x2a, 0x91, 0xbd,
		0xc4, 0x74, 0x06, 0xbd, 0x6d, 0x3f, 0xba, 0x3d, 0xc2, 0x09, 0x0c, 0x3e,
		0x56, 0x38, 0x49, 0x3e, 0x79, 0x81, 0x5e, 0x3d, 0xc6, 0xf6, 0x12, 0xbc,
		0x8a, 0x78, 0x0d, 0x3e, 0xe1, 0x6f, 0x43, 0x3e, 0x04, 0xe1, 0x25, 0x3e,
		0xba, 0xc2, 0x83, 0x3e, 0xae, 0x8a, 0x5a, 0x3e, 0xaa, 0x77, 0x8f, 0xbd,
		0x8d, 0x5b, 0x0b, 0x3e, 0xd1, 0x37, 0x64, 0x3e, 0xc7, 0x1f, 0x80, 0xbe,
		0x29, 0x85, 0x94, 0x3d, 0x36, 0xef, 0xa1, 0xbe, 0x04, 0x41, 0x32, 0xbd,
		0xd0, 0x28, 0xdd, 0xbd, 0x67, 0x19, 0x83, 0xbe, 0xc9, 0x1d, 0x67, 0xbe,
		0x99, 0xd0, 0x92, 0xbd, 0x6e, 0xae, 0x1b, 0xbe, 0x7a, 0xc2, 0xc4, 0xbc,
		0xbf, 0xf4, 0xc7, 0xbd, 0x73, 0x89, 0x52, 0x3e, 0x4a, 0xdc, 0x88, 0x3d,
		0x64, 0xfa, 0x7d, 0x3e, 0x9e, 0xa8, 0x82, 0xbd, 0x35, 0x67, 0x88, 0x3b,
		0x24, 0x27, 0xf1, 0x3d, 0x85, 0x65, 0x72, 0x3e, 0xd8, 0x69, 0xe1, 0x3d,
		0x98, 0x3a, 0x7c, 0xbe, 0x86, 0xa8, 0xad, 0xbd, 0x6e, 0xd5, 0x09, 0x3e,
		0x6e, 0x2b, 0x8d, 0xbe, 0xc5, 0x59, 0x97, 0x3e, 0x7b, 0x1a, 0x39, 0xbc,
		0xde, 0xdc, 0x30, 0xbe, 0x3d, 0x9f, 0x32, 0x3d, 0x5d, 0x76, 0x27, 0xbe,
		0xfd, 0x65, 0x85, 0xbe, 0xb3, 0x73, 0x85, 0x3d, 0xdf, 0x5b, 0x47, 0x3e,
		0x45, 0x55, 0xff, 0x3c, 0x1a, 0xb6, 0xc2, 0x3d, 0x76, 0x7b, 0x67, 0x3e,
		0xce, 0x2b, 0x3c, 0x3e, 0x3b, 0xd5, 0x59, 0xbe, 0x2f, 0xc3, 0x2c, 0xbe,
		0x06, 0xe2, 0x25, 0x3e, 0xe4, 0xc1, 0x1b, 0xbe, 0x4d, 0xa7, 0xf7, 0xbd,
		0x9b, 0x7f, 0xd5, 0x3d, 0x33, 0x6c, 0x6f, 0x3e, 0x9a, 0x4d, 0x08, 0x3e,
		0xc0, 0x9c, 0x5e, 0x3e, 0xcd, 0xdc, 0x31, 0x3e, 0x1f, 0x09, 0x71, 0x3e,
		0xe9, 0xf9, 0x82, 0x3e, 0x5e, 0xee, 0x39, 0x3d, 0x92, 0x02, 0x4d, 0x3e,
		0x66, 0x8d, 0x4d, 0xbe, 0x7e, 0x35, 0x73, 0xbe, 0xbe, 0x1d, 0x09, 0xbe,
		0x50, 0xb4, 0x88, 0xbe, 0xd7, 0x88, 0x9e, 0xbe, 0x68, 0x6b, 0x03, 0xbe,
		0x23, 0x34, 0xd9, 0x3d, 0x5e, 0x26, 0xc0, 0xbd, 0x48, 0xaa, 0x8b, 0xbc,
		0x99, 0x74, 0x8a, 0xbd, 0x0a, 0xac, 0x80, 0xbe, 0x2f, 0x4a, 0x1b, 0x3d,
		0xe7, 0x65, 0x30, 0xbe, 0xe4, 0xd1, 0xee, 0xbd, 0x03, 0xe8, 0x8e, 0x3e,
		0xfd, 0xe5, 0xb5, 0xbc, 0x16, 0x05, 0x33, 0xbe, 0xc6, 0x94, 0x92, 0xbc,
		0x45, 0x7b, 0x1f, 0x3e, 0x50, 0x34, 0xc8, 0xbd, 0xe2, 0x9a, 0x92, 0xbe,
		0xbd, 0x0d, 0x00, 0x3d, 0x06, 0x5f, 0xf1, 0x3d, 0x07, 0x1a, 0x4c, 0xbe,
		0x18, 0x02, 0x3d, 0x3e, 0xc4, 0x64, 0x0c, 0xbd, 0x35, 0x96, 0x29, 0xbc,
		0x0d, 0x35, 0x6d, 0x3e, 0x88, 0x72, 0x1e, 0xbe, 0x68, 0x78, 0x6a, 0xbd,
		0x96, 0x2c, 0x17, 0xbe, 0xa4, 0x4b, 0x5e, 0xbe, 0x1a, 0x0b, 0x8d, 0xbe,
		0xae, 0xb4, 0x32, 0xbe, 0x43, 0xe9, 0x8b, 0xbd, 0x25, 0x03, 0x63, 0x3e,
		0x75, 0x1b, 0x0e, 0xbd, 0x5f, 0xc4, 0xbf, 0xbb, 0xb8, 0x77, 0x02, 0x3e,
		0xbe, 0xd1, 0x3d, 0xbe, 0x3b, 0x5c, 0x28, 0x3d, 0x13, 0x3d, 0x7e, 0x3e,
		0x0b, 0xbf, 0x3b, 0x3e, 0x59, 0x32, 0x59, 0x3e, 0x06, 0xb6, 0x68, 0xbe,
		0xd1, 0x4b, 0x85, 0xbd, 0xc7, 0xd1, 0x1e, 0x3e, 0x79, 0xc5, 0x2b, 0xbe,
		0xc8, 0xf1, 0x74, 0x3e, 0x43, 0xaf, 0x2a, 0x3e, 0xa7, 0xf3, 0x81, 0xbe,
		0x49, 0xaa, 0x4c, 0xbc, 0xa2, 0xe8, 0x9f, 0x3d, 0x3b, 0x1f, 0x9b, 0x3e,
		0xb2, 0xd0, 0x63, 0xbe, 0x0d, 0xdd, 0xf7, 0x3b, 0xeb, 0xaf, 0x41, 0xbe,
		0xe7, 0xa3, 0x45, 0xbe, 0xdb, 0xea, 0xa7, 0x3e, 0xd6, 0x67, 0x03, 0x3e,
		0xfe, 0xc4, 0x02, 0xbe, 0xeb, 0x6b, 0x1e, 0x3e, 0x81, 0x66, 0x9d, 0x3d,
		0xb9, 0xfb, 0x8d, 0xbd, 0xab, 0xe4, 0x71, 0xbe, 0x46, 0xdc, 0x96, 0xbe,
		0xf4, 0xea, 0x9f, 0xbe, 0xaf, 0xef, 0x66, 0x3e, 0xea, 0xf4, 0x36, 0xbe,
		0x54, 0x61, 0xe7, 0xbd, 0x75, 0x3f, 0x0d, 0x3e, 0x0e, 0x17, 0x9a, 0xbe,
		0x82, 0xaa, 0x86, 0xbd, 0xca, 0x90, 0x4e, 0x3e, 0x79, 0x7c, 0xd3, 0x3d,
		0x5d, 0x89, 0x20, 0xbd, 0x2e, 0xa8, 0x22, 0xbe, 0xad, 0x19, 0xb7, 0xbd,
		0x36, 0x20, 0x05, 0xbe, 0x9f, 0x86, 0x18, 0xbe, 0xa9, 0x3d, 0x0d, 0xbe,
		0x0c, 0x37, 0xb1, 0x3c, 0xf7, 0x95, 0x8c, 0x3e, 0x30, 0xb0, 0x9a, 0xbe,
		0x28, 0xc9, 0xc4, 0xbd, 0x9b, 0x79, 0x5c, 0xbe, 0x5a, 0x2d, 0x34, 0xbd,
		0xf7, 0xec, 0x6e, 0xbe, 0xe7, 0xb5, 0x49, 0xbe, 0x6c, 0xd2, 0x65, 0xbe,
		0x68, 0x0a, 0x51, 0xbe, 0xb6, 0x6b, 0x3a, 0x3e, 0x1d, 0x04, 0x7b, 0xbc,
		0xca, 0xb7, 0x18, 0x3c, 0x13, 0x75, 0xce, 0x3d, 0x5b, 0x32, 0x0c, 0xbd,
		0xe3, 0x71, 0x76, 0xb9, 0xdc, 0x56, 0x28, 0x3e, 0xc4, 0x43, 0x21, 0x3e,
		0x93, 0x90, 0x76, 0xbd, 0xa4, 0x56, 0x8a, 0x3d, 0x7e, 0xf0, 0x89, 0xbe,
		0xb3, 0xb2, 0xa5, 0x3d, 0x2f, 0x38, 0x07, 0xbe, 0xc1, 0x37, 0x8b, 0xbe,
		0x54, 0xb1, 0x14, 0x3d, 0xd8, 0x5e, 0x92, 0xbe, 0x2d, 0xef, 0x36, 0x3d,
		0xe0, 0x1a, 0x0f, 0xbe, 0xd5, 0x5f, 0x02, 0x3e, 0x5b, 0x4b, 0x50, 0x3e,
		0x49, 0x31, 0xed, 0x3d, 0x9a, 0x06, 0x06, 0x3e, 0x4e, 0xc0, 0xe9, 0x3c,
		0xc1, 0xfc, 0x4a, 0xbe, 0x23, 0x20, 0x66, 0x3e, 0x84, 0x0e, 0x61, 0xbe,
		0x10, 0xfd, 0xd7, 0xbc, 0xb9, 0x05, 0x83, 0x3c, 0x22, 0x39, 0xd4, 0xbd,
		0x99, 0x05, 0x08, 0x3e, 0x9b, 0xc1, 0x37, 0xbe, 0x13, 0x6f, 0xda, 0xbd,
		0xc0, 0xa1, 0x21, 0x3e, 0x58, 0x5a, 0x40, 0xbe, 0xb3, 0x84, 0x8d, 0xbe,
		0x99, 0xb2, 0xe6, 0xbd, 0xf7, 0x5d, 0x5c, 0x3e, 0x3f, 0x46, 0x61, 0xbe,
		0xc6, 0x70, 0x43, 0x3e, 0x37, 0x57, 0x51, 0x3e, 0x10, 0xbc, 0x4d, 0xbe,
		0x34, 0x22, 0x05, 0xbe, 0xef, 0x97, 0x5e, 0xbe, 0xbe, 0xf9, 0x4c, 0xbe,
		0xd8, 0xf0, 0x0a, 0x3e, 0x38, 0x07, 0xb4, 0xbd, 0x68, 0x74, 0x85, 0x3c,
		0xae, 0x86, 0x87, 0xbe, 0xbe, 0xdf, 0xd5, 0xbd, 0x23, 0x98, 0x56, 0x3e,
		0xad, 0xe5, 0x2d, 0xbe, 0x13, 0x0a, 0x4e, 0xbd, 0x1f, 0x0c, 0x34, 0xbe,
		0x3a, 0x11, 0xf8, 0xbc, 0x91, 0xe9, 0x96, 0x3e, 0xa1, 0xe4, 0x8f, 0x3d,
		0xf6, 0x1a, 0x51, 0x3e, 0xee, 0xfd, 0x65, 0x3e, 0xed, 0x55, 0xe6, 0xbd,
		0xe4, 0xfe, 0x95, 0x3e, 0x5c, 0xaf, 0x20, 0x3d, 0x57, 0x53, 0x4a, 0x3e,
		0xf6, 0x79, 0x71, 0xbe, 0x29, 0x77, 0x8d, 0x3e, 0x28, 0x4b, 0xeb, 0x3a,
		0x6e, 0x90, 0xd5, 0x3d, 0xb6, 0x55, 0xef, 0xbc, 0x60, 0xb0, 0x80, 0x3e,
		0xd9, 0x96, 0x0e, 0x3e, 0x9f, 0x90, 0xe2, 0x3d, 0x3f, 0xf0, 0x6f, 0xbe,
		0xee, 0x54, 0xf7, 0xbc, 0xa6, 0x99, 0x25, 0x3e, 0xa8, 0x6f, 0x94, 0xbe,
		0xfe, 0xb0, 0x82, 0x3e, 0xe1, 0xf3, 0x83, 0xbe, 0x18, 0xf4, 0x7d, 0xbe,
		0xa4, 0xbb, 0x66, 0xbe, 0x88, 0x48, 0x9a, 0xbe, 0x48, 0xf1, 0x8d, 0x3e,
		0x7d, 0xa8, 0x96, 0xbe, 0x77, 0xe7, 0x70, 0x3e, 0x44, 0x1a, 0x05, 0xbe,
		0xad, 0xbd, 0xc3, 0xbd, 0x06, 0x2a, 0x61, 0xbe, 0x03, 0x4f, 0xf4, 0xbc,
		0x74, 0xb2, 0xeb, 0x3d, 0x90, 0x23, 0x14, 0xbe, 0xbc, 0x2a, 0x1c, 0x3d,
		0xcb, 0xdd, 0x27, 0xbe, 0xdf, 0x26, 0x98, 0xbb, 0x48, 0xd0, 0x61, 0xbe,
		0xf3, 0x09, 0x19, 0xbc, 0x03, 0xe8, 0x33, 0xbd, 0x98, 0xab, 0x3d, 0x3e,
		0xcc, 0xb7, 0x08, 0x3e, 0xa1, 0x76, 0x94, 0xbe, 0xfd, 0xcd, 0x74, 0xbe,
		0x1e, 0x77, 0xfb, 0x3d, 0x9c, 0x5b, 0xb2, 0x3d, 0x92, 0x85, 0x81, 0xbe,
		0x2f, 0xaa, 0x73, 0x3e, 0x43, 0xaf, 0x5b, 0xbe, 0x6a, 0x19, 0x38, 0x3e,
		0xe6, 0xd3, 0x25, 0x3e, 0x71, 0x43, 0xae, 0xbd, 0x7a, 0xde, 0x7e, 0x3e,
		0x47, 0x2a, 0x9d, 0x3d, 0x4b, 0x38, 0x48, 0xbd, 0x83, 0x5a, 0x6c, 0x3c,
		0x14, 0xbd, 0x2a, 0xbe, 0x2e, 0xb1, 0x3f, 0x3c, 0x7b, 0x98, 0x8b, 0x3d,
		0x37, 0xcb, 0x58, 0x3e, 0x60, 0x71, 0x89, 0xbd, 0xc8, 0xc8, 0x35, 0xbd,
		0x29, 0x0c, 0xd4, 0xbc, 0xc9, 0x49, 0x1c, 0xbe, 0x34, 0xed, 0x0f, 0xbc,
		0xe3, 0x92, 0x83, 0x3e, 0x2c, 0xdb, 0xa8, 0xbd, 0x27, 0x49, 0x08, 0x3e,
		0xac, 0xf7, 0x8b, 0x3c, 0xe3, 0x25, 0x29, 0xbd, 0x7d, 0x90, 0x44, 0xbe,
		0xc7, 0xbe, 0x1e, 0xbe, 0x79, 0xc1, 0x7f, 0x3d, 0xd3, 0x37, 0x59, 0xbe,
		0xdd, 0xa7, 0x6e, 0xbe, 0xb7, 0x42, 0x05, 0xbe, 0xfe, 0xe5, 0x75, 0xbd,
		0xb5, 0xc2, 0xb3, 0xbd, 0x8e, 0xe6, 0x9f, 0xbe, 0x96, 0x78, 0xd3, 0x3d,
		0x62, 0x3f, 0x99, 0xbe, 0x27, 0x17, 0x91, 0xbd, 0xe6, 0xa5, 0x5f, 0xbe,
		0x62, 0x9b, 0x73, 0xbe, 0x0a, 0x98, 0xd1, 0xbd, 0x2a, 0xf9, 0x19, 0x3d,
		0xcc, 0x34, 0x92, 0xbe, 0xb9, 0x13, 0x72, 0x3e, 0x23, 0x7b, 0x95, 0xbe,
		0x3f, 0x44, 0x25, 0x3e, 0x05, 0x36, 0x51, 0xbe, 0xb7, 0x0a, 0x8b, 0xbe,
		0xb9, 0xfc, 0x0a, 0x3e, 0x93, 0xd5, 0x76, 0x3e, 0xc1, 0x88, 0xe2, 0x3c,
		0x19, 0x08, 0x8f, 0xbd, 0x15, 0x1f, 0x85, 0x3e, 0xd2, 0x49, 0x98, 0xbe,
		0xd4, 0x74, 0xb6, 0xbd, 0x15, 0xcc, 0x87, 0xbd, 0x64, 0x15, 0x93, 0x3e,
		0x24, 0xd1, 0x77, 0xbe, 0xb7, 0x09, 0xd1, 0x3d, 0x90, 0x73, 0x04, 0xbd,
		0x54, 0xbd, 0xca, 0xbd, 0x01, 0xca, 0x47, 0x3e, 0x9c, 0x06, 0xf1, 0x3a,
		0x05, 0xdc, 0x9b, 0xbe, 0xd4, 0x91, 0xc6, 0xbd, 0x0a, 0x78, 0xe8, 0xbb,
		0xbd, 0xe6, 0x9d, 0x3e, 0x3b, 0xdb, 0x1a, 0xba, 0x25, 0x0d, 0x3e, 0xbe,
		0x09, 0x8c, 0xce, 0xbc, 0x9a, 0x74, 0x99, 0xbe, 0x31, 0xc9, 0x35, 0xbe,
		0x42, 0x41, 0xde, 0x3d, 0x7d, 0x44, 0x18, 0x3e, 0xcc, 0x0d, 0x41, 0x3e,
		0xe0, 0xcb, 0xd9, 0x3c, 0xc5, 0x0b, 0x72, 0xbe, 0x6c, 0x95, 0x00, 0xbd,
		0x01, 0xcf, 0x84, 0xbd, 0xa9, 0xbd, 0x93, 0xbe, 0x72, 0x05, 0x87, 0xbe,
		0x43, 0x1d, 0xee, 0xbd, 0xe1, 0x7e, 0x48, 0xbc, 0x5f, 0x16, 0xa7, 0x3e,
		0xf1, 0x0f, 0x0a, 0x3e, 0xb0, 0x2e, 0x8f, 0xbe, 0x8b, 0xcb, 0xf4, 0x3d,
		0xd3, 0x42, 0x27, 0xbe, 0xd7, 0xc7, 0x98, 0xbe, 0x89, 0xd4, 0x71, 0x3d,
		0x94, 0x53, 0x8b, 0xbe, 0xed, 0x5e, 0xde, 0xbd, 0xad, 0xa1, 0x75, 0x3e,
		0x76, 0x35, 0xc6, 0xbd, 0x7e, 0xa2, 0x7a, 0x3e, 0x2f, 0x2f, 0x20, 0xbe,
		0x26, 0xfb, 0x00, 0x3e, 0x09, 0x10, 0xb0, 0x3d, 0xb7, 0x9f, 0x59, 0xbe,
		0x85, 0x77, 0x90, 0xbe, 0x99, 0xf9, 0x15, 0xbc, 0xf7, 0x99, 0xa3, 0x3d,
		0x58, 0xbc, 0x82, 0x3e, 0x32, 0x71, 0x42, 0x3e, 0xaa, 0xac, 0x7f, 0x3c,
		0xd3, 0xba, 0x44, 0x3e, 0x5d, 0x8b, 0x9e, 0xbe, 0xd7, 0x34, 0x16, 0x3e,
		0x74, 0xbf, 0x20, 0x3e, 0x33, 0x59, 0xae, 0xbd, 0xd4, 0xcc, 0x57, 0x3e,
		0xce, 0xb3, 0xe1, 0xbc, 0x72, 0x1d, 0x55, 0xbe, 0xb8, 0xe3, 0xc0, 0xbe,
		0x6d, 0x17, 0xb5, 0xbe, 0xab, 0xa9, 0x9e, 0x3d, 0x2c, 0x74, 0x8b, 0xbe,
		0xda, 0x5b, 0xcf, 0xba, 0x2c, 0x73, 0x3e, 0x3d, 0xd9, 0x57, 0x3d, 0x3d,
		0xfe, 0xa8, 0x89, 0xbb, 0xfe, 0x2b, 0x39, 0xbe, 0xe4, 0x23, 0x9e, 0x3d,
		0x47, 0xb6, 0xec, 0xbb, 0x5d, 0xd0, 0x9e, 0xbd, 0xf8, 0x0f, 0x47, 0xbb,
		0x44, 0x3e, 0x21, 0x3e, 0x3f, 0x44, 0xf5, 0xbd, 0xe7, 0xd4, 0x08, 0xbd,
		0x71, 0x0f, 0x32, 0xbe, 0x7a, 0x35, 0x9d, 0xbe, 0xae, 0x0f, 0x95, 0x3d,
		0x44, 0x79, 0x9e, 0x3d, 0x08, 0x1a, 0x25, 0x3c, 0x1a, 0x9f, 0x3c, 0x3e,
		0x0a, 0x68, 0x50, 0x3e, 0xa2, 0x78, 0x1f, 0xbe, 0x36, 0x08, 0x89, 0xbe,
		0x9a, 0xe7, 0xa5, 0xbd, 0x4b, 0x5c, 0x0c, 0xbe, 0x01, 0xb0, 0x79, 0xbe,
		0xe6, 0xa4, 0xbf, 0x3d, 0x58, 0x96, 0x50, 0x3e, 0x41, 0x16, 0x3b, 0x3d,
		0xdf, 0xd4, 0x4b, 0xbe, 0xd8, 0x31, 0xbb, 0xbd, 0xf8, 0x80, 0x0d, 0x3e,
		0x7d, 0x5f, 0x7e, 0xbe, 0x00, 0x5a, 0x76, 0x3d, 0x78, 0x73, 0x39, 0x3d,
		0x97, 0xad, 0x93, 0x3e, 0xf7, 0xe4, 0xcf, 0x3d, 0xbe, 0x0b, 0x8c, 0xbc,
		0xd4, 0x27, 0xed, 0x3d, 0xf0, 0x4d, 0x74, 0xbe, 0xb8, 0x80, 0xd7, 0x3d,
		0xb5, 0x46, 0x82, 0xbe, 0xd5, 0xfa, 0x12, 0x3e, 0xd1, 0x2d, 0x0b, 0xbe,
		0xbc, 0xa3, 0x3e, 0x3e, 0x8c, 0x64, 0xbb, 0x3d, 0x26, 0xf1, 0x80, 0xbe,
		0xa1, 0x22, 0x43, 0x3c, 0x67, 0x69, 0x85, 0xbd, 0x2c, 0x1c, 0x82, 0xbe,
		0x85, 0x62, 0x3d, 0xbe, 0x7b, 0x4a, 0x31, 0x3d, 0x2d, 0xe5, 0x59, 0x3d,
		0x16, 0xb6, 0x79, 0xbe, 0x5e, 0x35, 0x12, 0x3e, 0x70, 0x14, 0x86, 0xbe,
		0x8a, 0x0a, 0x19, 0x3d, 0x9f, 0x1a, 0xa9, 0xbe, 0x76, 0xc2, 0xfa, 0xbd,
		0x01, 0x04, 0x8b, 0x3e, 0x48, 0x19, 0x43, 0xbe, 0xff, 0xe5, 0x05, 0xbe,
		0x19, 0xb3, 0x50, 0xbe, 0xe5, 0x18, 0x88, 0x3b, 0x81, 0x61, 0xf6, 0xbd,
		0x05, 0xe3, 0x87, 0xbe, 0xaa, 0x34, 0xe5, 0xbd, 0x4b, 0x13, 0x1b, 0x3e,
		0x85, 0x60, 0xb6, 0x3d, 0x3d, 0xda, 0x8e, 0xbe, 0x59, 0x67, 0x63, 0xbe,
		0x64, 0x75, 0x43, 0x3e, 0x73, 0xca, 0x35, 0xbe, 0x68, 0x18, 0x33, 0xbe,
		0x5d, 0xeb, 0x92, 0xbe, 0x72, 0x41, 0x3f, 0x3e, 0x7f, 0x5d, 0x14, 0xbe,
		0x8b, 0x6d, 0x29, 0x3d, 0x64, 0xf3, 0xec, 0x3d, 0x21, 0xb4, 0x1b, 0xbe,
		0x3e, 0x0a, 0x97, 0x3e, 0x19, 0x72, 0x47, 0xbe, 0xec, 0xa3, 0x37, 0xbc,
		0xcd, 0xcc, 0x6f, 0x3e, 0xb1, 0xc4, 0xaf, 0xbd, 0x9d, 0x59, 0x83, 0xbe,
		0xf1, 0xdd, 0x7b, 0x3d, 0x92, 0xcd, 0x97, 0xbe, 0x20, 0x77, 0x76, 0xbe,
		0x39, 0xf3, 0xa9, 0xbd, 0x83, 0x75, 0x8b, 0xbe, 0xad, 0xba, 0x00, 0xbc,
		0x42, 0x18, 0x67, 0xbe, 0x47, 0x02, 0x2a, 0x3e, 0xff, 0x23, 0x51, 0x3e,
		0x7d, 0x5d, 0x7a, 0x3e, 0xdd, 0xab, 0x7a, 0xbe, 0x1e, 0x3e, 0x19, 0x3c,
		0x2d, 0xa3, 0x0a, 0xbe, 0xd6, 0xb9, 0x42, 0xbe, 0x52, 0xa4, 0x05, 0xbe,
		0x2f, 0x00, 0x29, 0xbd, 0x55, 0xd7, 0x3b, 0xba, 0x73, 0xeb, 0x93, 0x3e,
		0x99, 0x56, 0xf3, 0xbd, 0xb8, 0xe5, 0x2e, 0xbe, 0x83, 0xa6, 0x2e, 0x3d,
		0x71, 0x18, 0xfa, 0x3d, 0x1d, 0x1e, 0x53, 0x3d, 0x73, 0x08, 0x9c, 0x3d,
		0x70, 0xe0, 0x18, 0x3e, 0x50, 0x0c, 0x8a, 0x3e, 0xae, 0xfd, 0x1b, 0xbe,
		0xbb, 0xb9, 0x84, 0xbd, 0x3b, 0xf7, 0x08, 0xbe, 0x5a, 0x95, 0x80, 0x3e,
		0xe1, 0x3d, 0x96, 0x3d, 0x0b, 0x4c, 0x78, 0xbd, 0x9d, 0xda, 0xdd, 0xbd,
		0x61, 0x3b, 0xfd, 0xbd, 0x46, 0xe7, 0x8e, 0xbc, 0x09, 0xa5, 0xf1, 0xbd,
		0x37, 0xb6, 0x85, 0x3e, 0x9c, 0x43, 0x16, 0x3e, 0x70, 0xa6, 0x83, 0xbe,
		0x7a, 0x3a, 0xa3, 0xbe, 0x79, 0xec, 0xae, 0xbe, 0x6e, 0xfc, 0x97, 0x3e,
		0x70, 0x39, 0xbe, 0x3d, 0xae, 0xf1, 0x83, 0xbe, 0x16, 0x73, 0x9e, 0xbc,
		0x9b, 0x9d, 0x8b, 0xbe, 0x2d, 0x88, 0x5d, 0x3e, 0xd9, 0xb9, 0x52, 0x3e,
		0xec, 0x77, 0xa5, 0x3e, 0xc3, 0x64, 0x84, 0x3e, 0x6d, 0xaa, 0x0e, 0x3e,
		0x8e, 0x9b, 0x04, 0xbe, 0x42, 0xa5, 0xa4, 0x3d, 0x32, 0x83, 0x19, 0xbe,
		0xa6, 0x16, 0x85, 0xbe, 0xdf, 0x92, 0x03, 0x3e, 0x8c, 0x9a, 0x07, 0x3d,
		0xb6, 0x3e, 0x43, 0x3e, 0x25, 0x37, 0xa8, 0x3d, 0x3d, 0xb1, 0x2f, 0xbe,
		0xf7, 0xd1, 0x61, 0x3e, 0x10, 0x56, 0x0c, 0x3d, 0x21, 0x48, 0x88, 0x3e,
		0x87, 0x8c, 0x88, 0x3e, 0x60, 0xad, 0x2a, 0x3e, 0xa5, 0x63, 0x6d, 0xbe,
		0xdb, 0x05, 0x8f, 0x3e, 0xa9, 0x87, 0x3f, 0x3d, 0x4b, 0x69, 0x6c, 0x3d,
		0x4b, 0xed, 0x64, 0x3e, 0x64, 0xda, 0x60, 0xbe, 0xcf, 0xa8, 0x1d, 0x3e,
		0x66, 0xbd, 0x03, 0xbe, 0xaf, 0x54, 0x25, 0xbe, 0xb3, 0xc0, 0x08, 0x3e,
		0x35, 0x2a, 0x16, 0x3e, 0x73, 0x5a, 0x4d, 0xbe, 0x62, 0x64, 0x01, 0x3e,
		0x3b, 0x3e, 0x91, 0xbe, 0x3c, 0x75, 0x86, 0x3e, 0x20, 0x3e, 0x9a, 0x3e,
		0x77, 0x80, 0x86, 0x3e, 0x9a, 0x37, 0x61, 0x3e, 0x7f, 0x0e, 0x8b, 0x3e,
		0x1c, 0x40, 0x19, 0x3e, 0x58, 0xe5, 0x75, 0xbe, 0xde, 0xf4, 0xf3, 0x3d,
		0x43, 0x00, 0xcc, 0xbc, 0xac, 0x77, 0xf8, 0xbc, 0x4c, 0x46, 0x3e, 0xbc,
		0xd1, 0xad, 0x1a, 0xbe, 0x3a, 0x22, 0x4d, 0xbd, 0xdd, 0x0f, 0xfc, 0xbd,
		0xa0, 0x75, 0xee, 0xbd, 0x12, 0x78, 0x83, 0xbe, 0x2c, 0x7e, 0x9c, 0xbe,
		0x4d, 0xd2, 0xb2, 0x3c, 0x0d, 0xea, 0xf3, 0x3d, 0xfb, 0x31, 0x29, 0x3e,
		0x41, 0xd9, 0x1d, 0x3e, 0xf8, 0xf2, 0x78, 0x3e, 0x2e, 0x69, 0xda, 0x3d,
		0xeb, 0x68, 0xb7, 0xbc, 0x06, 0xfd, 0x83, 0x3d, 0x4c, 0x7c, 0x0f, 0x3d,
		0x34, 0x8a, 0x27, 0x3e, 0x0b, 0x8c, 0x92, 0xbe, 0x65, 0x64, 0x5f, 0x3c,
		0x68, 0xe0, 0xd9, 0xbc, 0x4e, 0x90, 0x2c, 0xbe, 0x95, 0xc2, 0xda, 0xbd,
		0x44, 0xf7, 0x5f, 0x3e, 0x50, 0xc4, 0x91, 0x3e, 0x81, 0xa0, 0x01, 0x3e,
		0xc5, 0x27, 0x00, 0x3d, 0xca, 0x82, 0x01, 0xbe, 0x99, 0x69, 0x87, 0xbe,
		0x64, 0x32, 0x13, 0xbe, 0xb4, 0x8d, 0x83, 0xbe, 0x1a, 0x14, 0x8d, 0x3e,
		0xc9, 0xf2, 0x90, 0xbd, 0x60, 0xd0, 0x42, 0xbe, 0x3e, 0xd5, 0x53, 0xbe,
		0xb9, 0x9a, 0xab, 0xbd, 0x90, 0x89, 0xb1, 0x3d, 0x61, 0x76, 0x8c, 0xbd,
		0x7c, 0x4a, 0x1a, 0x3e, 0x6d, 0x73, 0x16, 0xbe, 0xb3, 0x1c, 0x17, 0xbd,
		0xd8, 0xdc, 0x27, 0xbd, 0x9e, 0xb8, 0x5e, 0xbe, 0x7f, 0xa0, 0xce, 0x3d,
		0x2b, 0x65, 0xda, 0x3d, 0xc7, 0x75, 0x97, 0x3e, 0xb8, 0x58, 0x90, 0x3d,
		0x3f, 0x1d, 0x57, 0x3e, 0x28, 0xb2, 0xf8, 0xbd, 0xf0, 0x87, 0x8e, 0xbd,
		0x72, 0x72, 0x1e, 0xbd, 0x69, 0x89, 0xa3, 0xbe, 0xe6, 0x54, 0x65, 0x3e,
		0x39, 0x94, 0xc3, 0x3d, 0x74, 0x34, 0x49, 0x3e, 0x5f, 0x5f, 0x4b, 0xbe,
		0xe2, 0x38, 0xb6, 0xbd, 0x14, 0x69, 0x21, 0xbe, 0xd6, 0xf3, 0x5a, 0x3e,
		0x2d, 0xaf, 0x24, 0xbe, 0xb9, 0x2a, 0x21, 0x3e, 0x84, 0x4a, 0x51, 0xbe,
		0xaf, 0xa1, 0x19, 0xbd, 0xf7, 0x5c, 0x09, 0xbe, 0xe9, 0x3f, 0x9f, 0xbe,
		0x59, 0x32, 0x15, 0xbe, 0x42, 0x1b, 0x4d, 0x3e, 0x96, 0xe9, 0x54, 0x3e,
		0x3a, 0xd8, 0xf2, 0xbd, 0x69, 0xfa, 0x20, 0xbe, 0x0a, 0x81, 0xfe, 0xbc,
		0x7c, 0xf4, 0x85, 0xbe, 0x50, 0x54, 0x54, 0x3d, 0x5c, 0x55, 0xaf, 0x3c,
		0x65, 0xa8, 0x59, 0xbe, 0xbf, 0x65, 0x35, 0xbe, 0x8b, 0x29, 0x3e, 0x3e,
		0xc8, 0x1d, 0x30, 0x3d, 0xc8, 0x3e, 0x6e, 0x3e, 0x05, 0x06, 0x99, 0xbe,
		0x28, 0xd0, 0x35, 0x3e, 0x3e, 0xb4, 0x8a, 0xbb, 0x50, 0x6e, 0xd9, 0xbd,
		0x4a, 0x00, 0x17, 0xbe, 0x14, 0x29, 0xf3, 0xbd, 0xcd, 0x46, 0x0f, 0x3d,
		0x8e, 0x2d, 0x52, 0x3e, 0xf0, 0x42, 0xe2, 0x3d, 0x96, 0x87, 0x38, 0xbe,
		0x64, 0xa8, 0x00, 0x3c, 0xa4, 0xde, 0x77, 0x3e, 0x46, 0x91, 0x5d, 0xbe,
		0xab, 0x1c, 0x26, 0x3e, 0xd5, 0x0c, 0x81, 0x3e, 0xfb, 0x4d, 0x39, 0x3e,
		0xd9, 0xe2, 0x56, 0xbe, 0xf6, 0xbe, 0x27, 0xbd, 0x70, 0x84, 0xdc, 0xbd,
		0x3f, 0xe2, 0x84, 0xbd, 0x36, 0x01, 0xa5, 0x3e, 0x7b, 0xe3, 0x74, 0xbc,
		0x6a, 0xcb, 0x74, 0xbe, 0x22, 0xef, 0x80, 0xbd, 0xaa, 0xb9, 0x5b, 0x3e,
		0xcf, 0x4b, 0x2b, 0x3c, 0x8c, 0xdc, 0x45, 0x3e, 0xbf, 0x1f, 0x85, 0xbe,
		0x22, 0x76, 0x8b, 0x3e, 0x1b, 0x9a, 0x39, 0x3e, 0x0f, 0xf4, 0x50, 0xbe,
		0x86, 0x94, 0x2f, 0xbe, 0xd5, 0x34, 0x50, 0x3e, 0xec, 0xd6, 0x78, 0xbe,
		0x63, 0x9e, 0x40, 0x3e, 0x66, 0x02, 0x77, 0xbe, 0x5a, 0xa5, 0x0c, 0xbe,
		0x85, 0x34, 0x8a, 0x3d, 0x10, 0xa8, 0x8a, 0xbd, 0x05, 0x0d, 0x89, 0x3e,
		0xa2, 0x1d, 0x5a, 0x3c, 0xfb, 0x81, 0x4a, 0x3e, 0x69, 0x96, 0x3e, 0xbe,
		0xf1, 0xb1, 0x19, 0x3e, 0x67, 0x88, 0x66, 0x3e, 0xb9, 0x1b, 0xe6, 0x3c,
		0x41, 0x59, 0xca, 0x3d, 0x56, 0x95, 0x91, 0xbe, 0x31, 0x89, 0xe6, 0x3d,
		0x3b, 0x3a, 0xda, 0x3d, 0xfe, 0x1a, 0x23, 0x3e, 0xbd, 0x92, 0x2a, 0xbe,
		0x7e, 0xe3, 0x67, 0x3e, 0x17, 0x13, 0x3b, 0x3e, 0x0d, 0xb9, 0x97, 0x3e,
		0xc6, 0x56, 0x14, 0xbd, 0x19, 0x82, 0x80, 0x3e, 0xfe, 0xe1, 0xa9, 0xbd,
		0xf9, 0xaf, 0x5b, 0x3e, 0x19, 0x93, 0x40, 0x3e, 0x15, 0x8a, 0x12, 0xbe,
		0x7f, 0x83, 0x76, 0xbd, 0x2f, 0x5c, 0xfa, 0x3d, 0xf0, 0xe6, 0x72, 0x3e,
		0x4f, 0xbc, 0x47, 0xbe, 0xec, 0x56, 0x91, 0x3e, 0xa7, 0x8a, 0x2f, 0x3e,
		0x3f, 0x9a, 0x3c, 0x3e, 0x9f, 0x1a, 0x9f, 0xbd, 0x17, 0x1c, 0x2f, 0xbd,
		0xd4, 0xfd, 0x95, 0x3e, 0x19, 0x4c, 0x5e, 0xbd, 0x47, 0x50, 0x73, 0x3e,
		0x17, 0x8d, 0x82, 0xbe, 0x94, 0x18, 0x35, 0xbd, 0x0b, 0xc6, 0x7c, 0x3c,
		0x06, 0x71, 0x15, 0x3e, 0x52, 0xbf, 0x8d, 0xbe, 0x03, 0x3a, 0x9b, 0x3a,
		0x21, 0xa2, 0xb8, 0x3b, 0xf2, 0xb3, 0x83, 0xbe, 0xfe, 0x77, 0x6a, 0xbe,
		0x0c, 0x90, 0xb9, 0x3d, 0x05, 0x53, 0x94, 0x3d, 0x8e, 0xc1, 0x81, 0xbe,
		0xf7, 0x86, 0x96, 0xbe, 0x66, 0xa7, 0x75, 0x3e, 0x90, 0xc7, 0x25, 0xbc,
		0x34, 0x35, 0x5a, 0xbe, 0x72, 0x11, 0xe9, 0x3d, 0x9a, 0x5a, 0x3f, 0x3e,
		0x5b, 0x6b, 0x6c, 0xbe, 0xab, 0xb3, 0x84, 0xbe, 0x7d, 0xd3, 0x1a, 0x3d,
		0x4e, 0x45, 0x55, 0x3d, 0x80, 0xaf, 0xa8, 0xbe, 0x44, 0x80, 0x67, 0x3e,
		0xc7, 0x5a, 0x5e, 0xbd, 0xaf, 0x49, 0x17, 0xbe, 0x60, 0x83, 0x8e, 0xbe,
		0xc6, 0x6e, 0x8f, 0x3e, 0x51, 0x0e, 0x7c, 0x3a, 0x97, 0x26, 0x90, 0xbd,
		0xa5, 0x1e, 0x7d, 0x3d, 0x02, 0xd0, 0x8a, 0xbe, 0xc1, 0xbd, 0x86, 0xbe,
		0x88, 0x14, 0xf8, 0xbc, 0x87, 0x14, 0xf1, 0xbd, 0x9a, 0xe0, 0x4d, 0xbe,
		0xd4, 0x94, 0x86, 0xbe, 0xaa, 0xfe, 0x08, 0xbe, 0xb4, 0x83, 0x09, 0xbe,
		0x58, 0x63, 0x64, 0xbd, 0x26, 0x96, 0x99, 0xbe, 0xa5, 0xf7, 0x87, 0x3e,
		0x68, 0x52, 0x81, 0x3e, 0x07, 0x54, 0xd0, 0xbd, 0xb9, 0xcc, 0xe7, 0xbc,
		0x2e, 0x02, 0x59, 0x3e, 0x23, 0xed, 0x4e, 0xbe, 0xbf, 0xcc, 0x6f, 0xbe,
		0x64, 0x85, 0x0c, 0x3d, 0x6c, 0xf4, 0x8a, 0x3e, 0xe2, 0x21, 0x1b, 0x3e,
		0xf6, 0xb0, 0x3e, 0x3b, 0x63, 0x49, 0xd9, 0xbd, 0x6b, 0x45, 0x9a, 0xbd,
		0x31, 0x85, 0x57, 0xbe, 0x24, 0xf0, 0x8c, 0x3e, 0x63, 0xc4, 0x1e, 0x3e,
		0xeb, 0x78, 0x83, 0xbe, 0x21, 0x93, 0xef, 0xbd, 0x08, 0x97, 0x80, 0x3e,
		0x6a, 0x5a, 0x06, 0x3d, 0x3c, 0x25, 0xce, 0xbd, 0x56, 0xc7, 0x6c, 0x3d,
		0x91, 0x77, 0x0e, 0xbe, 0x5d, 0x95, 0x08, 0x3e, 0xa5, 0x60, 0x35, 0x3e,
		0x3b, 0x97, 0x3b, 0x3e, 0xfc, 0xba, 0x21, 0x3e, 0x84, 0xab, 0x52, 0xbe,
		0x5b, 0x4c, 0x22, 0x3c, 0xe0, 0x5e, 0x40, 0xbd, 0x6f, 0x07, 0x6e, 0x3e,
		0x0d, 0xeb, 0x17, 0xbe, 0x2b, 0xcb, 0x8d, 0x3e, 0x29, 0x08, 0x7e, 0x3e,
		0xc4, 0x06, 0x8b, 0x3e, 0x80, 0x81, 0x8a, 0x3d, 0xad, 0x2a, 0x8e, 0x3e,
		0x34, 0xc2, 0xa5, 0x3d, 0x5e, 0x97, 0x03, 0x3e, 0xd0, 0x9c, 0x86, 0x3e,
		0x70, 0x48, 0x78, 0xbb, 0xfd, 0xd2, 0x7a, 0x3e, 0x62, 0x07, 0xfd, 0xbd,
		0x84, 0xd3, 0x7c, 0x3d, 0x93, 0xd6, 0x61, 0x3e, 0x17, 0xd1, 0x8e, 0x3d,
		0x3f, 0xb0, 0x20, 0xbe, 0x35, 0x09, 0x42, 0x3e, 0x79, 0xae, 0xb5, 0x3c,
		0xd3, 0xc6, 0xb4, 0xbd, 0x42, 0x85, 0x85, 0xbc, 0xa6, 0x4d, 0x93, 0xbe,
		0x2f, 0xd7, 0x5b, 0x3e, 0x45, 0xcb, 0x4a, 0xbe, 0xe2, 0x91, 0x56, 0xbe,
		0xb8, 0x65, 0x6d, 0xbe, 0x63, 0xfd, 0x69, 0xbe, 0xf5, 0xad, 0x9c, 0x3d,
		0xc6, 0x93, 0x7b, 0xbe, 0xef, 0x93, 0x87, 0x3e, 0xf5, 0xdc, 0xaa, 0xbe,
		0x48, 0xa9, 0xe7, 0xbc, 0x56, 0x9b, 0xe3, 0xbc, 0xe9, 0xa9, 0x0c, 0x3e,
		0x58, 0x2a, 0xc4, 0xbb, 0xff, 0x05, 0x89, 0xbe, 0xa8, 0x20, 0x66, 0x3e,
		0x41, 0xe8, 0xfd, 0x3d, 0x0c, 0x97, 0x90, 0x3e, 0xe2, 0xf3, 0xe8, 0xbd,
		0xac, 0x1d, 0x82, 0xbe, 0x22, 0x8b, 0x02, 0x3e, 0x9c, 0xfd, 0x73, 0x3d,
		0x01, 0xca, 0x1d, 0x3e, 0x5b, 0xbb, 0xb2, 0x3d, 0x24, 0xfd, 0xba, 0x3d,
		0xf2, 0x9b, 0x94, 0x3e, 0x2e, 0x72, 0x04, 0xbe, 0x12, 0xa9, 0x76, 0x3e,
		0x62, 0x50, 0x4f, 0x3e, 0xd4, 0xab, 0x15, 0xbd, 0x60, 0x23, 0x90, 0x3e,
		0x82, 0xcd, 0x81, 0x3d, 0xee, 0x55, 0xa3, 0x3d, 0xe2, 0x4d, 0x83, 0x3e,
		0x8e, 0x74, 0x00, 0xbe, 0x67, 0x25, 0x8b, 0xbe, 0xc1, 0xbf, 0x03, 0x3e,
		0xca, 0x50, 0x7e, 0x3c, 0xa1, 0x57, 0x5e, 0xbe, 0x02, 0xea, 0xa2, 0xbe,
		0xe9, 0x74, 0x5f, 0x3d, 0x80, 0x6d, 0x32, 0xbe, 0xa0, 0x8d, 0xa3, 0xbe,
		0x41, 0xbc, 0x90, 0x3e, 0x84, 0x4c, 0x02, 0xbe, 0x1c, 0x58, 0x45, 0x3e,
		0xe4, 0x39, 0x49, 0x3e, 0x8a, 0xe0, 0x3c, 0x3e, 0xcd, 0xbe, 0x8a, 0x3e,
		0x51, 0xbf, 0x54, 0xbb, 0x3e, 0xdb, 0x14, 0x3d, 0x53, 0x5b, 0x9b, 0xbe,
		0x03, 0xab, 0x4a, 0x3e, 0x50, 0x9a, 0x56, 0xbe, 0x7d, 0x0c, 0x99, 0x3c,
		0x5a, 0x34, 0x31, 0x3e, 0xbb, 0x2d, 0x8c, 0x3e, 0xa8, 0x85, 0x25, 0x3d,
		0x73, 0x47, 0x38, 0xbc, 0x20, 0x93, 0x8c, 0x3e, 0xa1, 0xca, 0x1f, 0x3e,
		0xf3, 0x4f, 0xe4, 0x3d, 0x81, 0xe0, 0x8b, 0xbe, 0xa0, 0x73, 0x1c, 0xbc,
		0xd7, 0x08, 0x4a, 0xbd, 0xce, 0x37, 0xdd, 0x3d, 0x11, 0xf8, 0x4f, 0x3b,
		0xa0, 0x03, 0xa8, 0xbd, 0x1a, 0x99, 0x2b, 0xbe, 0xba, 0xcd, 0xf8, 0xbd,
		0x7f, 0xbc, 0x83, 0xbe, 0x94, 0xe0, 0xf3, 0x3c, 0x23, 0x69, 0x4f, 0xbd,
		0x6d, 0x22, 0x22, 0xbd, 0xbd, 0x29, 0xe3, 0xbc, 0x62, 0x95, 0x5d, 0x3e,
		0x52, 0xd1, 0x60, 0xbd, 0xa5, 0x30, 0x95, 0xbd, 0x57, 0x65, 0xfa, 0x3d,
		0x0d, 0x26, 0x51, 0x3e, 0xbe, 0x80, 0xd7, 0x3d, 0x4b, 0xf8, 0xe2, 0xbd,
		0x46, 0xa6, 0x57, 0xbc, 0xdd, 0x3f, 0x32, 0xbe, 0x16, 0xd2, 0x23, 0xbe,
		0xe1, 0x2f, 0xdd, 0xbd, 0xc6, 0x2f, 0x68, 0xbe, 0xbf, 0x25, 0xd9, 0x3d,
		0x78, 0xdc, 0x89, 0xbd, 0x3a, 0xf6, 0x2b, 0x3e, 0x36, 0x3a, 0x5f, 0xbe,
		0x99, 0x4d, 0x84, 0xbc, 0x14, 0x72, 0x3c, 0xbe, 0x8f, 0xfa, 0x50, 0x3e,
		0xd6, 0x8f, 0x83, 0x3e, 0x3c, 0x6b, 0x0d, 0xbd, 0x72, 0x76, 0xad, 0x3d,
		0x02, 0xe7, 0x03, 0x3d, 0xc9, 0x3c, 0x1c, 0x3d, 0xab, 0xea, 0x4d, 0x3e,
		0xc2, 0xd1, 0xff, 0xff, 0x04, 0x00, 0x00, 0x00, 0x80, 0x00, 0x00, 0x00,
		0x94, 0x2f, 0xa9, 0xbc, 0xb6, 0x07, 0x3d, 0x3e, 0x46, 0x2a, 0x87, 0x3e,
		0xd7, 0x23, 0x56, 0x3e, 0x68, 0x3d, 0x5a, 0x3e, 0x0b, 0xf6, 0xb8, 0x3e,
		0x55, 0xbf, 0x01, 0x3e, 0x7c, 0xc4, 0x9f, 0xbe, 0x8d, 0xd0, 0x96, 0xbe,
		0xfd, 0x96, 0x59, 0xbd, 0x43, 0xd0, 0xa3, 0x38, 0xfe, 0xe0, 0xcc, 0x3e,
		0x22, 0xea, 0xd2, 0xbd, 0x24, 0x0e, 0x13, 0x3e, 0x23, 0x88, 0x8d, 0xbd,
		0x05, 0x49, 0xbd, 0xbd, 0x02, 0x96, 0x8d, 0x3e, 0x67, 0xfa, 0xad, 0xbd,
		0x8c, 0x2f, 0x7f, 0x3e, 0x97, 0x76, 0x90, 0x3e, 0x05, 0x85, 0x51, 0xbd,
		0xd8, 0x16, 0x07, 0xbe, 0x22, 0xd5, 0x8e, 0xbe, 0xda, 0x8b, 0xfb, 0xbc,
		0x59, 0xc4, 0xe1, 0xbb, 0xb0, 0xfb, 0x09, 0x3d, 0xe0, 0x98, 0x83, 0xbe,
		0x81, 0x87, 0x42, 0x3e, 0xeb, 0x3a, 0x24, 0xbb, 0x3f, 0xb3, 0x28, 0xbe,
		0xd4, 0xf0, 0x32, 0xbe, 0x17, 0x04, 0x2d, 0x3e, 0x4e, 0xd2, 0xff, 0xff,
		0x04, 0x00, 0x00, 0x00, 0x80, 0x04, 0x00, 0x00, 0x9a, 0x2a, 0x1f, 0xbe,
		0xc8, 0x0e, 0x5b, 0xbe, 0x1f, 0xbf, 0x5f, 0xbe, 0x9a, 0xb7, 0x1b, 0x3d,
		0x28, 0xcd, 0xfb, 0x3d, 0x14, 0x7c, 0x2c, 0xbd, 0x33, 0x2e, 0x76, 0xbd,
		0x63, 0x25, 0x57, 0xbe, 0x32, 0xb2, 0x85, 0xbe, 0x03, 0x77, 0xe7, 0x3d,
		0xd4, 0xf0, 0x0c, 0x3e, 0x23, 0x4a, 0x2c, 0x3e, 0x16, 0xa6, 0x25, 0x3e,
		0xed, 0x50, 0xc5, 0x3d, 0xf4, 0xdf, 0xaa, 0x3d, 0x9b, 0x76, 0x39, 0x3e,
		0x0e, 0x37, 0x4d, 0xbe, 0x35, 0xb0, 0x65, 0x3e, 0x12, 0xc7, 0x28, 0x3d,
		0xdd, 0x0e, 0xa1, 0xbe, 0x92, 0xf1, 0x35, 0xbd, 0xb4, 0xa8, 0x02, 0x3d,
		0xa8, 0x07, 0xb2, 0x3d, 0x90, 0x20, 0x6a, 0x3e, 0x6e, 0x12, 0x44, 0xbd,
		0x3f, 0x73, 0x88, 0xbe, 0x8d, 0x05, 0x52, 0x3d, 0x82, 0xdb, 0x66, 0xbe,
		0x78, 0x30, 0x43, 0xbe, 0x29, 0x8b, 0x4b, 0xbd, 0xef, 0x6d, 0x20, 0xbd,
		0xef, 0xdf, 0x75, 0x3d, 0x68, 0x54, 0x9d, 0xbe, 0xb9, 0xdc, 0x0b, 0x3e,
		0xaa, 0xdf, 0x98, 0xbd, 0x14, 0x4b, 0x9d, 0x3c, 0x10, 0x85, 0x5c, 0x3d,
		0xcc, 0x65, 0xf0, 0x3d, 0x8c, 0xc0, 0x85, 0xbe, 0xd0, 0x18, 0x89, 0x3e,
		0x94, 0x0d, 0x96, 0x3d, 0x99, 0xa0, 0x89, 0xbe, 0xed, 0xa8, 0x82, 0xbe,
		0x56, 0xee, 0x27, 0x3d, 0x90, 0x05, 0x68, 0xbe, 0x16, 0x47, 0xa2, 0xbe,
		0x51, 0x72, 0x80, 0xbe, 0xe3, 0x09, 0x4c, 0xbe, 0xf1, 0xf1, 0x92, 0xbe,
		0xf4, 0xfb, 0xc9, 0xbd, 0x6a, 0xd4, 0x32, 0x3e, 0x29, 0x82, 0xb5, 0x3d,
		0xa0, 0xc2, 0x45, 0x3e, 0xf0, 0x61, 0x81, 0xbe, 0xb0, 0xcb, 0xac, 0xbe,
		0x0c, 0xcc, 0x9e, 0x3d, 0xcc, 0x35, 0x2e, 0x3e, 0x5e, 0x09, 0x60, 0xbe,
		0xb4, 0x45, 0xb6, 0xbc, 0x6f, 0x2f, 0x1c, 0x3e, 0xa1, 0xb0, 0x3a, 0x3b,
		0xed, 0xa6, 0x38, 0x3d, 0x07, 0x04, 0x37, 0x3d, 0x31, 0x78, 0x19, 0x3e,
		0x07, 0x7c, 0x40, 0x3e, 0xdf, 0x6b, 0xdf, 0x3d, 0x68, 0x0a, 0x67, 0xbe,
		0x9e, 0x85, 0x83, 0xbe, 0xb6, 0x1d, 0xf3, 0xbd, 0x1e, 0x62, 0x3c, 0xbc,
		0xa2, 0x5b, 0x3e, 0xbc, 0x46, 0x4b, 0xf4, 0x3d, 0x95, 0xad, 0x1b, 0xbe,
		0xed, 0xe7, 0xd9, 0x3d, 0x65, 0x38, 0x47, 0x3e, 0x9f, 0x1a, 0x72, 0x3e,
		0x6c, 0xcb, 0x42, 0x3c, 0x8b, 0x58, 0x68, 0x3d, 0xa0, 0x59, 0x1c, 0xbe,
		0xf1, 0x38, 0xd8, 0xbd, 0x03, 0x12, 0x52, 0x3d, 0xde, 0x6e, 0x09, 0x3e,
		0x59, 0xc2, 0x03, 0x3e, 0x5a, 0x3d, 0xe5, 0xbd, 0x4a, 0xb9, 0x2e, 0x3e,
		0x31, 0xcf, 0xad, 0xbd, 0x48, 0xa4, 0x70, 0x3e, 0xee, 0x9b, 0x45, 0x3e,
		0x91, 0x4c, 0x2d, 0xbe, 0x3c, 0xb6, 0x55, 0xbe, 0x01, 0x6a, 0x82, 0x3e,
		0x17, 0xed, 0xe2, 0x3d, 0xf9, 0xcc, 0x39, 0x3e, 0xe1, 0x50, 0xb1, 0x3d,
		0xd3, 0xbd, 0x56, 0x3e, 0x9b, 0xa1, 0x46, 0xbe, 0x69, 0x2a, 0x0d, 0x3e,
		0xf9, 0x68, 0xb2, 0xbd, 0xe1, 0xad, 0x3c, 0x3e, 0x28, 0x51, 0x0c, 0xbe,
		0x38, 0x55, 0x30, 0x3d, 0x15, 0xb6, 0x16, 0x3e, 0x75, 0x07, 0x96, 0xbe,
		0xf3, 0x8c, 0x7e, 0xbe, 0x28, 0xdb, 0xaa, 0x3d, 0xd1, 0x0f, 0x87, 0xbe,
		0x81, 0xf1, 0x30, 0x3e, 0xd2, 0x29, 0x7d, 0xbd, 0x2f, 0xba, 0x39, 0x3e,
		0x95, 0xfa, 0xd3, 0xbd, 0x44, 0x8c, 0x7a, 0xbe, 0x3f, 0x12, 0x67, 0x3e,
		0x89, 0x12, 0x02, 0xbe, 0xca, 0x7b, 0x6d, 0xbc, 0xd4, 0xae, 0xf1, 0xbd,
		0x81, 0x62, 0x26, 0x3e, 0x34, 0xcb, 0x3c, 0xbe, 0xd9, 0x28, 0xbc, 0xbd,
		0xf6, 0xa9, 0xd2, 0x3d, 0x3b, 0x3a, 0xf3, 0x3c, 0xeb, 0x42, 0x9d, 0xbd,
		0x96, 0x3f, 0x38, 0x3e, 0x43, 0x5e, 0x7d, 0x3e, 0xa2, 0x5a, 0x11, 0x3e,
		0xf0, 0x37, 0xef, 0x3d, 0x6e, 0x7c, 0xa0, 0xbe, 0x3b, 0x77, 0x88, 0x3e,
		0x3b, 0xbc, 0x25, 0x3e, 0xc6, 0x9e, 0x81, 0xbe, 0xee, 0xb8, 0x63, 0x3d,
		0xab, 0x3f, 0x85, 0xbe, 0xdd, 0xf8, 0x18, 0xbe, 0x5d, 0x74, 0xfd, 0x3d,
		0xa4, 0x1b, 0x85, 0x3e, 0xdf, 0x45, 0x33, 0xbe, 0xe7, 0x42, 0x83, 0xbe,
		0x97, 0x02, 0x77, 0xbe, 0x86, 0x61, 0x59, 0xbe, 0x70, 0x86, 0x6d, 0x3e,
		0x34, 0xe6, 0x7c, 0x3c, 0xe9, 0xfd, 0x89, 0xbd, 0x8a, 0x0c, 0xf9, 0xbd,
		0xc0, 0xe9, 0xb2, 0x3d, 0xa6, 0xaa, 0x88, 0xbd, 0x85, 0x52, 0x88, 0xbe,
		0x1a, 0xdc, 0x88, 0xbd, 0xdd, 0x00, 0x69, 0x3e, 0x37, 0x3f, 0xa2, 0xbd,
		0x84, 0xc6, 0x6f, 0x3e, 0x95, 0x7b, 0x81, 0xbe, 0x78, 0x33, 0xa1, 0xbe,
		0x42, 0xfa, 0xff, 0x3b, 0x29, 0x04, 0x0c, 0x3e, 0x88, 0x3f, 0xa7, 0xbe,
		0x93, 0x3e, 0x80, 0xbe, 0x01, 0x71, 0x62, 0x3e, 0xde, 0xe6, 0x0a, 0x3e,
		0xd2, 0x9f, 0x0d, 0xbb, 0xea, 0xb0, 0x18, 0x3e, 0x9b, 0x23, 0x44, 0x3e,
		0xcd, 0x55, 0x7e, 0xbe, 0xcf, 0x2f, 0x3c, 0xbe, 0xfd, 0xad, 0x6c, 0x3e,
		0xbe, 0x79, 0x37, 0x3e, 0x62, 0x55, 0x08, 0x3e, 0x1f, 0x8c, 0x4c, 0x3e,
		0x72, 0xb8, 0x91, 0xbe, 0x56, 0x0f, 0x86, 0xbe, 0x3e, 0x65, 0x68, 0xbc,
		0x30, 0x41, 0x9a, 0xbb, 0x75, 0x9c, 0x42, 0xbe, 0x87, 0x54, 0x1b, 0xbe,
		0x34, 0xd7, 0x71, 0xbc, 0xa5, 0x85, 0x06, 0xbe, 0x3c, 0xc2, 0x04, 0xbe,
		0xfa, 0x69, 0xa9, 0xbd, 0x8e, 0x42, 0x08, 0xbc, 0xe8, 0x01, 0x31, 0x3d,
		0x88, 0x36, 0x1d, 0xbe, 0x0c, 0x71, 0x0d, 0x3c, 0xb1, 0x31, 0x92, 0x3d,
		0xa8, 0x54, 0x49, 0x3e, 0xad, 0xb9, 0xa9, 0xbe, 0x65, 0x1b, 0x4c, 0xbe,
		0x7b, 0xef, 0x1b, 0xbe, 0x1c, 0x9c, 0x04, 0x3e, 0x20, 0xd1, 0x46, 0x3e,
		0xbf, 0x92, 0x96, 0x3d, 0xf6, 0xf3, 0xbc, 0xbc, 0x1d, 0x77, 0x10, 0x3e,
		0xf2, 0xf2, 0x2f, 0xbe, 0x99, 0x0b, 0x42, 0x3e, 0x0a, 0x0c, 0xed, 0xbd,
		0x5a, 0xae, 0x5d, 0x3c, 0x0f, 0x91, 0xa1, 0xbe, 0x18, 0x80, 0x05, 0x3e,
		0x9f, 0x45, 0x16, 0xbe, 0x83, 0x70, 0xe2, 0xbb, 0xd0, 0x22, 0x1f, 0xbe,
		0xec, 0x0b, 0xf5, 0x3d, 0x34, 0xc3, 0x74, 0x3d, 0x99, 0x5e, 0x9f, 0xbe,
		0xff, 0x26, 0x61, 0x3e, 0xea, 0xc4, 0x42, 0x3e, 0x10, 0x5e, 0x80, 0xbe,
		0x46, 0xc6, 0x14, 0x3e, 0x48, 0x06, 0x8e, 0x3d, 0x4b, 0x47, 0xf5, 0x3d,
		0x99, 0x4b, 0x26, 0xbe, 0x53, 0x03, 0x18, 0xbe, 0x26, 0xbd, 0x61, 0xbd,
		0xdb, 0x0d, 0x66, 0x3e, 0xe4, 0x30, 0x76, 0xbe, 0x87, 0x0c, 0x20, 0x3e,
		0x2e, 0xfe, 0xd7, 0xbd, 0x67, 0x4e, 0xaa, 0xbe, 0x89, 0x2d, 0xa1, 0xbe,
		0x1e, 0x20, 0xee, 0x3d, 0x00, 0x02, 0x8d, 0xbe, 0x97, 0x30, 0x36, 0x3e,
		0x89, 0x53, 0x33, 0xbe, 0x9d, 0x07, 0x2e, 0x3c, 0xd9, 0x00, 0x71, 0x3e,
		0xaa, 0x69, 0x44, 0x3e, 0x20, 0x5a, 0x2e, 0x3c, 0x30, 0x44, 0xe7, 0x3c,
		0x0e, 0x0e, 0x40, 0xbd, 0xaf, 0x3c, 0x0b, 0x3e, 0x80, 0x24, 0xc6, 0x3d,
		0xc8, 0x70, 0x8c, 0xbe, 0x6d, 0x09, 0x92, 0xbe, 0x6b, 0x30, 0xa1, 0xbe,
		0x8d, 0x29, 0x12, 0x3e, 0x51, 0xe6, 0x19, 0x3e, 0xc1, 0xbf, 0xee, 0xbd,
		0x2f, 0x8c, 0x82, 0xbd, 0xb8, 0xd1, 0x22, 0x3e, 0xc2, 0xf3, 0x87, 0xbe,
		0x5b, 0x20, 0x77, 0xbe, 0x2b, 0x35, 0x9e, 0xbe, 0xcd, 0x9e, 0x77, 0xbe,
		0x68, 0xdd, 0xa2, 0x3d, 0x8f, 0xf4, 0x52, 0xbe, 0xcc, 0x1b, 0x1c, 0xbe,
		0xcd, 0xc2, 0x1f, 0xbe, 0xe9, 0x61, 0x36, 0xbe, 0x70, 0x21, 0x04, 0xbe,
		0x40, 0x58, 0xce, 0x3d, 0x8e, 0xca, 0x93, 0xbe, 0x40, 0x58, 0x53, 0x3e,
		0x7b, 0x25, 0x75, 0xbe, 0x9e, 0x4a, 0xc0, 0xbd, 0x7b, 0x23, 0x4d, 0x3d,
		0xe3, 0xc0, 0xef, 0xbc, 0x8f, 0x89, 0x50, 0x3e, 0x83, 0x30, 0x4f, 0xbe,
		0xfc, 0xea, 0x63, 0xbe, 0x59, 0x60, 0x3f, 0xbe, 0xe2, 0xab, 0xbb, 0x3b,
		0xbc, 0xec, 0x25, 0xbe, 0x25, 0xa4, 0x26, 0x3e, 0xc5, 0x3a, 0x74, 0x3e,
		0xa3, 0xd9, 0x9d, 0x3d, 0xc2, 0x46, 0xab, 0x3d, 0xdf, 0x44, 0x9f, 0xbe,
		0x48, 0xd1, 0x24, 0xbd, 0x28, 0x39, 0x77, 0xbc, 0xe8, 0x98, 0xc4, 0x3c,
		0xdd, 0xf9, 0xbd, 0xbd, 0x05, 0x89, 0xa4, 0xbe, 0xce, 0x62, 0x98, 0xbd,
		0x84, 0x2f, 0x27, 0xbe, 0xaa, 0xa5, 0x85, 0xbd, 0x66, 0x37, 0xa0, 0xbd,
		0x67, 0x51, 0x43, 0x3e, 0x6d, 0x6a, 0x06, 0x3e, 0x09, 0x0c, 0x87, 0x3e,
		0xc2, 0x69, 0xd6, 0xbd, 0x0b, 0x53, 0x11, 0xbe, 0xa9, 0x58, 0x5d, 0xbe,
		0x76, 0xac, 0x7f, 0x3e, 0x1e, 0x41, 0x43, 0xbe, 0xad, 0x6a, 0x0a, 0xbe,
		0xe8, 0xac, 0x85, 0xbe, 0x41, 0x63, 0x62, 0x3e, 0x6d, 0x92, 0x81, 0x3d,
		0x2d, 0x1e, 0x00, 0x3e, 0x78, 0x87, 0xe4, 0x3d, 0xda, 0xd6, 0xff, 0xff,
		0x04, 0x00, 0x00, 0x00, 0x00, 0x28, 0x00, 0x00, 0xbb, 0xa4, 0xee, 0xbd,
		0x27, 0x60, 0xae, 0x3d, 0x8b, 0x2d, 0xa6, 0xbd, 0x86, 0xce, 0x66, 0xbd,
		0xb8, 0xc8, 0x72, 0x3d, 0x5b, 0x9e, 0xe3, 0x3d, 0x00, 0xd0, 0x8a, 0xbd,
		0x2d, 0x13, 0xe2, 0x3d, 0x54, 0x22, 0xd9, 0xbc, 0xaa, 0xfb, 0x01, 0x3e,
		0x29, 0x2c, 0xc7, 0x3d, 0xc0, 0xd8, 0xbb, 0xbd, 0x3b, 0x2d, 0x23, 0x3d,
		0xfc, 0x6e, 0x21, 0xbe, 0x4f, 0x17, 0x69, 0x3d, 0x26, 0xc4, 0xb9, 0xbd,
		0x63, 0xa5, 0xc6, 0x3c, 0xea, 0x23, 0x01, 0xbe, 0x1c, 0x29, 0xfc, 0x3d,
		0x16, 0x57, 0xb3, 0xbd, 0x2e, 0x57, 0xed, 0xbd, 0xe0, 0x1b, 0x25, 0xbe,
		0xc5, 0x85, 0x94, 0xbd, 0xae, 0x69, 0xd8, 0x3d, 0x76, 0x94, 0xfd, 0xbb,
		0x12, 0xa2, 0xc8, 0x3d, 0x97, 0x07, 0x37, 0x3d, 0x92, 0xc2, 0xff, 0x3d,
		0x5d, 0x0a, 0xfe, 0xbd, 0x66, 0x56, 0xb5, 0xbd, 0xa5, 0xc6, 0x36, 0xbe,
		0x94, 0x3d, 0x01, 0xbd, 0x02, 0x04, 0xc1, 0xbc, 0x6d, 0x99, 0x2d, 0xbe,
		0x49, 0x11, 0xa6, 0xbd, 0x8c, 0x96, 0xcd, 0xbd, 0xe4, 0x28, 0x15, 0x3d,
		0x01, 0x8e, 0xb8, 0xbd, 0x28, 0xbd, 0xfd, 0xbd, 0xa7, 0x75, 0x1a, 0x3e,
		0x9c, 0x14, 0xe0, 0x3d, 0xdf, 0x1f, 0x99, 0x3d, 0x18, 0x24, 0x5d, 0xbd,
		0x7f, 0x7e, 0x1b, 0x3e, 0xb8, 0x1f, 0x46, 0x3d, 0x60, 0x07, 0x65, 0x3c,
		0x5d, 0x2b, 0x8d, 0xbd, 0x77, 0x0b, 0x07, 0x3e, 0x36, 0xdb, 0x3c, 0xbe,
		0xf6, 0x5f, 0x86, 0xbd, 0x42, 0x42, 0x98, 0x3d, 0x88, 0xc6, 0xbf, 0xbd,
		0xd4, 0xdc, 0x6a, 0x3c, 0xb2, 0xac, 0xf9, 0x3d, 0x82, 0x82, 0x44, 0xbe,
		0x5c, 0xb6, 0xd8, 0x3c, 0x6c, 0x8e, 0x0f, 0xbe, 0x83, 0x8b, 0x44, 0xbe,
		0x50, 0x0b, 0xe6, 0x3d, 0xe2, 0x96, 0x91, 0x3c, 0x0b, 0x50, 0x27, 0xbe,
		0xba, 0x93, 0xed, 0xb9, 0xe1, 0x02, 0xa2, 0xbd, 0xc2, 0xb7, 0x5b, 0x3d,
		0x88, 0x26, 0x22, 0xbe, 0xb7, 0x4e, 0x6e, 0xbd, 0x3e, 0x55, 0x06, 0xbe,
		0xb1, 0x0f, 0x06, 0x3d, 0xb3, 0x31, 0xae, 0x3c, 0xfc, 0x91, 0x0b, 0xbe,
		0x67, 0x5c, 0xc8, 0x3d, 0xed, 0x31, 0x00, 0xbe, 0x7f, 0x9b, 0x0e, 0xbd,
		0xcd, 0xe0, 0xd8, 0x3d, 0x57, 0x59, 0x08, 0x3d, 0x95, 0x25, 0x92, 0x3a,
		0xef, 0xe6, 0xd8, 0xbd, 0x5f, 0x38, 0x58, 0xbd, 0x29, 0x20, 0xe1, 0x3d,
		0xf8, 0x72, 0x14, 0x3e, 0xeb, 0x54, 0xdf, 0x3d, 0x16, 0xbf, 0xf1, 0xbd,
		0x43, 0x17, 0x84, 0xbb, 0xe2, 0xfb, 0x1d, 0x3e, 0x54, 0x3c, 0xb1, 0x3d,
		0x42, 0xe7, 0x09, 0xbd, 0x7f, 0x79, 0x80, 0xbd, 0xd1, 0x85, 0x00, 0x3d,
		0xc6, 0xd9, 0x83, 0x3c, 0x5c, 0x3a, 0xc1, 0xbd, 0xb9, 0xe4, 0x1f, 0x3a,
		0xe1, 0x5b, 0xf4, 0x3d, 0xa8, 0x85, 0x02, 0x3e, 0x6a, 0x02, 0xaf, 0x3b,
		0x3b, 0xf0, 0x00, 0xbe, 0x15, 0x88, 0xe9, 0xbd, 0x52, 0x9d, 0xb2, 0xbc,
		0x28, 0xad, 0x46, 0x3d, 0x87, 0xdc, 0xd2, 0x3d, 0x57, 0x6e, 0xc5, 0x3b,
		0x44, 0x5a, 0x1d, 0x3d, 0xe0, 0xf6, 0xec, 0x3d, 0xe8, 0xaa, 0x1c, 0xbe,
		0x03, 0x5a, 0x1b, 0xbd, 0x58, 0xd0, 0x00, 0x3e, 0xd1, 0xd9, 0x02, 0xbe,
		0x20, 0x57, 0xd0, 0xbd, 0x68, 0xf1, 0x10, 0xbe, 0xf1, 0xaa, 0x54, 0xbd,
		0x88, 0xae, 0x5f, 0x3c, 0xdd, 0x7e, 0xa3, 0xbd, 0x39, 0xa2, 0x06, 0x3d,
		0xb2, 0x97, 0x6d, 0xbd, 0x0a, 0xaf, 0xf0, 0x3d, 0x6b, 0x5a, 0x05, 0xbe,
		0x43, 0x07, 0x8a, 0x3d, 0xb8, 0x7f, 0xf3, 0x3d, 0xa6, 0x84, 0xa5, 0xbd,
		0xea, 0xc5, 0xd2, 0xbd, 0xb6, 0x67, 0x08, 0x3c, 0x01, 0xfd, 0x81, 0x3d,
		0x46, 0x6a, 0x79, 0x3d, 0xfa, 0x07, 0x03, 0xbe, 0x59, 0x47, 0xa6, 0xba,
		0x0a, 0xcb, 0x9c, 0xbd, 0x03, 0x55, 0xe1, 0xbc, 0x00, 0x51, 0xce, 0x3c,
		0xda, 0x0b, 0x21, 0xbe, 0x76, 0x0e, 0x9b, 0x3d, 0x37, 0x8d, 0x8d, 0x3d,
		0xa8, 0x4b, 0xe7, 0x3d, 0x8f, 0xc6, 0x24, 0xbe, 0xee, 0x2d, 0x28, 0xbe,
		0xa8, 0x72, 0xad, 0x3d, 0xd7, 0x3f, 0x1e, 0xbe, 0xcb, 0x16, 0x26, 0xbc,
		0xac, 0x9d, 0xb3, 0xbd, 0x35, 0xf1, 0x28, 0x3d, 0x13, 0x13, 0x8e, 0xbd,
		0xa3, 0xc8, 0x00, 0xbd, 0x2b, 0xed, 0x7a, 0x3d, 0xeb, 0xc7, 0xf5, 0x3c,
		0xa5, 0xd4, 0xf4, 0xbd, 0x37, 0xd5, 0x48, 0xbb, 0x9a, 0x55, 0x15, 0x3e,
		0x93, 0x0a, 0xc7, 0x3d, 0x2c, 0x34, 0x05, 0xbc, 0xf8, 0xeb, 0x89, 0xbd,
		0x2a, 0xbb, 0x9b, 0xbc, 0xc1, 0x6e, 0xde, 0xbd, 0xd3, 0x0e, 0xe2, 0xbd,
		0x1e, 0xc0, 0xeb, 0xbd, 0x10, 0x01, 0xf1, 0x3d, 0xb4, 0x55, 0x7f, 0xbc,
		0x67, 0x84, 0xf0, 0x3d, 0x84, 0x52, 0xe4, 0xbd, 0xee, 0x7f, 0x90, 0x3c,
		0xdb, 0x44, 0x06, 0xbd, 0x23, 0x15, 0xd2, 0x3c, 0x63, 0x76, 0xd4, 0xbd,
		0xd2, 0xf8, 0x39, 0xbe, 0x56, 0xb6, 0xf6, 0xbc, 0x85, 0x51, 0xa9, 0xbd,
		0x54, 0x6e, 0xeb, 0x3c, 0x4b, 0xe9, 0x5c, 0x3d, 0xbf, 0xc9, 0xe4, 0x3d,
		0xb6, 0xf3, 0xdc, 0x3c, 0x3a, 0x22, 0x8d, 0xbd, 0x42, 0x35, 0x0d, 0xbd,
		0xef, 0x2f, 0x0b, 0xbe, 0x59, 0x1c, 0xae, 0x3d, 0x27, 0x56, 0x42, 0x3d,
		0xd8, 0x4b, 0xc0, 0x3d, 0x1e, 0xf8, 0x71, 0xbc, 0x84, 0x49, 0x1c, 0xbe,
		0x1e, 0xea, 0xd6, 0xbd, 0x71, 0xe2, 0xcd, 0x3d, 0xf9, 0x4a, 0xce, 0xbd,
		0x5a, 0x3c, 0xe0, 0x3d, 0xe8, 0x27, 0xfc, 0xbd, 0xc7, 0xb0, 0x8a, 0xbd,
		0xfe, 0x9a, 0xea, 0xbd, 0x01, 0x47, 0x42, 0xbe, 0x93, 0xa8, 0x01, 0xbd,
		0xef, 0x3b, 0xf2, 0x3d, 0x81, 0x6f, 0x33, 0xbe, 0x29, 0x56, 0xc5, 0xbd,
		0x30, 0xfc, 0xfd, 0x3d, 0xa6, 0xda, 0xb2, 0xbd, 0x90, 0x2b, 0x39, 0x3c,
		0xf1, 0x53, 0xbc, 0xbd, 0xac, 0x82, 0x78, 0xbd, 0x87, 0x09, 0xb7, 0x3d,
		0xc5, 0x14, 0xd8, 0xbd, 0xbc, 0x00, 0x3f, 0xbc, 0x68, 0x5b, 0x29, 0xbc,
		0x4a, 0x34, 0x01, 0x3e, 0xac, 0x96, 0x2c, 0x3d, 0xa6, 0x5d, 0x19, 0xbe,
		0x2b, 0xab, 0x51, 0xbd, 0xf7, 0xc7, 0x31, 0xbe, 0x76, 0xa0, 0xb2, 0x3d,
		0x5e, 0x99, 0xd6, 0x3d, 0x13, 0x8b, 0xca, 0x3d, 0x85, 0xc2, 0x30, 0x3d,
		0x94, 0x0a, 0x5d, 0x3d, 0xf6, 0x01, 0x88, 0xbd, 0x1c, 0xc0, 0xaa, 0x3c,
		0xf6, 0x4d, 0x5b, 0xbd, 0xf9, 0x4f, 0x0d, 0xbe, 0xaa, 0x99, 0x3d, 0xbe,
		0x5f, 0xc9, 0x17, 0xbe, 0x29, 0xb6, 0x01, 0x3d, 0x54, 0x7f, 0x47, 0xbe,
		0x84, 0xa3, 0xa5, 0xbd, 0xc5, 0xe2, 0xa3, 0xbb, 0xee, 0xf5, 0xea, 0xbd,
		0x4b, 0x75, 0xd6, 0xbd, 0x06, 0xe9, 0x8b, 0xbc, 0x60, 0xe7, 0x4f, 0xbd,
		0xe1, 0x11, 0x80, 0xbc, 0xd8, 0x42, 0x1a, 0xbd, 0xee, 0x67, 0x81, 0x3d,
		0xf8, 0xc9, 0xa7, 0x3c, 0x68, 0x1e, 0x3d, 0xbe, 0xb8, 0x51, 0x18, 0xbd,
		0xed, 0xa9, 0xf0, 0xbd, 0x6d, 0xd0, 0xaf, 0xbc, 0xb5, 0x63, 0x5b, 0xbd,
		0xbe, 0x95, 0xa7, 0x3d, 0x0c, 0xc4, 0xb9, 0x3d, 0x71, 0x71, 0xa4, 0x3a,
		0x8d, 0x30, 0xea, 0x3d, 0xd1, 0x22, 0x11, 0xbb, 0x25, 0xc1, 0x15, 0x3d,
		0x77, 0x6c, 0xcd, 0x3d, 0x2a, 0x60, 0x2a, 0x3c, 0x45, 0x59, 0x12, 0x3c,
		0x99, 0xa7, 0x03, 0xbe, 0x62, 0x5f, 0x64, 0xbd, 0x76, 0xa4, 0x62, 0xbd,
		0x08, 0xf0, 0x83, 0x3d, 0x27, 0x39, 0x2a, 0xbe, 0xd7, 0xc7, 0xe5, 0xbd,
		0x84, 0xda, 0xf8, 0x3d, 0x1b, 0x2c, 0xdc, 0xbd, 0x06, 0x54, 0x66, 0x3d,
		0x82, 0x2b, 0xe7, 0xbd, 0x97, 0x91, 0x56, 0x3c, 0xab, 0x0c, 0xa6, 0x3d,
		0x5a, 0x46, 0x1f, 0xbd, 0x77, 0x63, 0x0d, 0xbd, 0x1c, 0x2e, 0xe5, 0x3d,
		0xd8, 0xb4, 0x2f, 0xbd, 0x88, 0xf7, 0x8b, 0x3d, 0xe3, 0xa5, 0x81, 0xbc,
		0xea, 0x18, 0x1b, 0xbe, 0x61, 0xe0, 0xe0, 0xbd, 0x39, 0x66, 0x9c, 0xbd,
		0x78, 0xbe, 0x02, 0x3e, 0xb1, 0x42, 0x80, 0xbb, 0x4f, 0xd8, 0x8b, 0xbd,
		0xe6, 0x80, 0x83, 0x3c, 0x2d, 0x68, 0x0f, 0xbe, 0xd0, 0x77, 0x7b, 0x3d,
		0x06, 0x3f, 0x81, 0xbd, 0xb6, 0x65, 0xc5, 0x3d, 0xbd, 0x89, 0x93, 0xbc,
		0xb6, 0xc5, 0xef, 0xbc, 0xe5, 0xe2, 0xd2, 0x3d, 0xe8, 0xa3, 0x09, 0x3e,
		0x75, 0xdc, 0xe9, 0xbc, 0x40, 0xc1, 0xca, 0xbc, 0xc0, 0x25, 0x93, 0x3c,
		0xc0, 0x23, 0x0b, 0xbe, 0xa8, 0x7f, 0xdb, 0x3d, 0xf4, 0x44, 0x22, 0xbe,
		0xeb, 0x41, 0xa6, 0x3d, 0x47, 0x29, 0x08, 0xbe, 0x40, 0xcf, 0x72, 0x3b,
		0x70, 0xeb, 0x1a, 0xbe, 0x19, 0x30, 0xde, 0x3d, 0xc2, 0x70, 0xbf, 0x3c,
		0xa5, 0x28, 0x88, 0xbd, 0x6d, 0xb1, 0x0c, 0x3d, 0xac, 0xf0, 0xb3, 0x3d,
		0x8c, 0xe5, 0x3b, 0x38, 0x48, 0x41, 0x8c, 0x3d, 0x38, 0x4b, 0x2c, 0xbd,
		0x5c, 0x1e, 0x47, 0xbd, 0xe9, 0x94, 0xf2, 0x3d, 0xa4, 0x2e, 0xe4, 0x3b,
		0xbb, 0xde, 0x3c, 0xbd, 0x5f, 0xf1, 0xaa, 0xbc, 0xdc, 0x34, 0x78, 0xbc,
		0x44, 0xde, 0x98, 0xbd, 0xb4, 0x56, 0x8d, 0x3c, 0x0d, 0x8e, 0xff, 0x3d,
		0x21, 0x60, 0x56, 0xbd, 0x1e, 0xb0, 0xef, 0xbd, 0x33, 0xa9, 0xf9, 0xbd,
		0xae, 0xce, 0x70, 0x3d, 0x6b, 0x88, 0x11, 0xbe, 0xaa, 0xb3, 0x1d, 0xbe,
		0x16, 0x31, 0x42, 0x3d, 0x38, 0xe7, 0x8d, 0x3b, 0x48, 0x25, 0x28, 0xbd,
		0x83, 0xd7, 0x3e, 0x3d, 0xbf, 0xbf, 0xf7, 0x3d, 0xbf, 0xb0, 0x9f, 0xbd,
		0xbc, 0xb8, 0xcf, 0x3c, 0xca, 0x70, 0xb4, 0xbb, 0x2c, 0xeb, 0xe3, 0x3d,
		0xa0, 0x79, 0xaf, 0x3d, 0x30, 0xd7, 0x6b, 0x3d, 0xe1, 0xc5, 0xfd, 0xbd,
		0xcd, 0x29, 0x1e, 0xbc, 0xb8, 0xf8, 0xb4, 0xbd, 0xb1, 0xd4, 0xc1, 0xbd,
		0x44, 0x45, 0x2b, 0xbe, 0x22, 0x3e, 0x99, 0xbc, 0x39, 0xb8, 0x73, 0x3d,
		0x87, 0xf2, 0x1d, 0x3e, 0x43, 0x0c, 0x3a, 0x3d, 0xdd, 0x8c, 0x6a, 0x3c,
		0xca, 0xda, 0xf4, 0x3d, 0x5e, 0xb6, 0x20, 0xbe, 0x92, 0xee, 0x8a, 0x3d,
		0x2b, 0x30, 0xed, 0xbd, 0x9f, 0xc5, 0xad, 0xbd, 0x92, 0x51, 0x58, 0xbb,
		0x44, 0x97, 0x1c, 0x3d, 0x80, 0x15, 0x3f, 0x3c, 0xe2, 0xfa, 0xd8, 0x3c,
		0x69, 0x98, 0xaa, 0xbd, 0x65, 0x04, 0x1f, 0xbe, 0x9e, 0x89, 0xa3, 0x3d,
		0x6c, 0xf7, 0x5b, 0xbd, 0xeb, 0xaa, 0x1d, 0xbe, 0xba, 0x53, 0x6d, 0xbd,
		0x91, 0x28, 0x1d, 0xbd, 0x5d, 0x84, 0xcd, 0xbd, 0x29, 0x5c, 0x81, 0x3d,
		0xf0, 0x91, 0x3c, 0xbe, 0xe9, 0x13, 0x07, 0xbd, 0x68, 0x28, 0x17, 0xbe,
		0xe5, 0xef, 0xdb, 0x3d, 0x93, 0xf5, 0xb9, 0x3c, 0x76, 0x12, 0xe3, 0x3a,
		0x53, 0x2c, 0x33, 0x3d, 0xc8, 0xa4, 0xc4, 0xbd, 0xc5, 0xce, 0x2e, 0xbe,
		0x9c, 0x3d, 0xcf, 0x3c, 0x48, 0x8c, 0x90, 0x3d, 0xfd, 0x6d, 0x20, 0xbe,
		0x77, 0xbd, 0x89, 0xbd, 0xf5, 0x9f, 0x69, 0xba, 0xe5, 0x33, 0xa8, 0x3d,
		0xda, 0x74, 0x07, 0xbd, 0xb7, 0x80, 0xa9, 0xbd, 0x9a, 0xf1, 0x91, 0x3d,
		0xb7, 0x5b, 0xaf, 0xbd, 0xd7, 0x41, 0xfc, 0x3d, 0xc5, 0xae, 0xde, 0xbd,
		0xd0, 0xd2, 0xfd, 0xbd, 0xe4, 0x24, 0xa2, 0x3d, 0x85, 0x36, 0x40, 0xbd,
		0xfa, 0xa2, 0x50, 0xbd, 0x80, 0x82, 0xea, 0xbd, 0x93, 0x0a, 0x37, 0xbd,
		0xa2, 0xae, 0xd6, 0xbd, 0x0e, 0xab, 0xfa, 0xbd, 0xeb, 0xdc, 0x12, 0xbe,
		0x44, 0xdb, 0x2a, 0xbe, 0xfd, 0x9c, 0x1a, 0x3c, 0x94, 0x15, 0x0b, 0x3d,
		0xfc, 0xc5, 0xc8, 0xbd, 0xc5, 0x6d, 0x98, 0x3d, 0x3a, 0xcd, 0x6d, 0xbb,
		0x78, 0x4a, 0x1f, 0x3a, 0x7d, 0x66, 0xa7, 0x3d, 0xef, 0xb0, 0x1f, 0x3e,
		0xa2, 0x4b, 0x82, 0x3d, 0x5e, 0x53, 0x44, 0xbe, 0x06, 0xea, 0x0d, 0xbe,
		0xbb, 0x09, 0xcf, 0x3c, 0xbe, 0x71, 0x89, 0xbd, 0xdb, 0x4a, 0x28, 0x3d,
		0x4a, 0xb2, 0x97, 0x3d, 0x98, 0x88, 0x58, 0xba, 0x39, 0x13, 0xdc, 0x3c,
		0x1c, 0xc9, 0x9c, 0x3c, 0xec, 0xd7, 0x5c, 0xbd, 0xa1, 0x2f, 0x11, 0xbe,
		0x4a, 0x02, 0x59, 0xbd, 0xfb, 0x56, 0xd2, 0xbd, 0x45, 0xff, 0x07, 0xbd,
		0x84, 0x86, 0x90, 0x3d, 0xfc, 0x4e, 0xa8, 0x3d, 0xd9, 0x3a, 0xa8, 0xbc,
		0x4d, 0x26, 0x18, 0xbe, 0x81, 0x51, 0xa9, 0xbd, 0xe1, 0x16, 0x72, 0x3d,
		0x0d, 0x03, 0xa1, 0x3d, 0x1e, 0xee, 0xd1, 0xbd, 0x42, 0x5c, 0x10, 0xbe,
		0xd7, 0xbb, 0xf1, 0xbd, 0x57, 0xb2, 0xb4, 0x3b, 0x9b, 0x61, 0x91, 0xbc,
		0x14, 0x96, 0xc0, 0x3d, 0xff, 0xf7, 0xd5, 0xbd, 0x0e, 0x79, 0x4b, 0xbe,
		0x37, 0x8d, 0x1e, 0xbe, 0xec, 0x38, 0x22, 0x3d, 0x22, 0x94, 0x63, 0x3e,
		0x3e, 0x1c, 0xab, 0xbd, 0xb7, 0x56, 0xba, 0x3d, 0xb8, 0x8d, 0x38, 0x3c,
		0x6d, 0xa9, 0xc9, 0x3d, 0xd0, 0xff, 0xba, 0xbd, 0x0e, 0xdd, 0x6c, 0xbc,
		0xca, 0x44, 0xae, 0x3d, 0xdb, 0xe6, 0xe1, 0x3d, 0x55, 0x25, 0x19, 0x3e,
		0xb7, 0xd3, 0x16, 0x3e, 0xd4, 0x48, 0x8b, 0xbd, 0xcc, 0x61, 0x94, 0xbd,
		0x93, 0x2f, 0x55, 0x3c, 0x82, 0x90, 0x7a, 0x3d, 0xe4, 0x39, 0xcd, 0x3d,
		0x79, 0xa5, 0x9d, 0x3d, 0x1e, 0xcd, 0x31, 0x3e, 0xe8, 0xa9, 0x01, 0xbe,
		0x11, 0x1f, 0xdd, 0x3d, 0x78, 0x14, 0x6d, 0x3d, 0xde, 0x99, 0x2f, 0x3e,
		0x25, 0x04, 0xf0, 0xbd, 0x3a, 0x16, 0x6e, 0x3d, 0x38, 0xa0, 0xfb, 0x3c,
		0x44, 0x99, 0x9f, 0x3d, 0xe4, 0xec, 0x25, 0xbe, 0x7d, 0xef, 0x04, 0x3c,
		0x4e, 0x24, 0x24, 0x3e, 0xa5, 0x80, 0xe6, 0xbd, 0xe3, 0xef, 0x3b, 0x3e,
		0x60, 0x80, 0xb3, 0xbb, 0x14, 0x2f, 0x84, 0xbd, 0x1c, 0x90, 0xb7, 0x3d,
		0x60, 0xf8, 0xc8, 0x3d, 0xa1, 0xfc, 0x13, 0xbe, 0xb3, 0x01, 0x2c, 0xbd,
		0xd9, 0xf6, 0xcc, 0xbd, 0xc9, 0x0e, 0x10, 0xbe, 0x7e, 0xfd, 0xea, 0x3d,
		0x39, 0xc4, 0x03, 0x3d, 0x9e, 0xa7, 0x31, 0x3d, 0x33, 0xb0, 0x83, 0xbd,
		0x34, 0x8a, 0x1e, 0x3d, 0xf5, 0x5e, 0x0f, 0x3c, 0xba, 0xce, 0xda, 0xbd,
		0xcc, 0x73, 0x1d, 0x3c, 0x80, 0x32, 0x8d, 0x3c, 0x1d, 0xd3, 0x17, 0x3d,
		0x88, 0x12, 0x82, 0xbc, 0x57, 0x77, 0x38, 0xbd, 0x6d, 0x47, 0x4b, 0xbe,
		0x1f, 0xf9, 0x37, 0xbc, 0x2d, 0xec, 0xf2, 0x3d, 0xcc, 0x95, 0x90, 0x3b,
		0xc3, 0x34, 0xb5, 0x3d, 0xb7, 0x55, 0x5d, 0x3d, 0xc0, 0xf6, 0xba, 0xbd,
		0x2a, 0xe5, 0xbc, 0x3c, 0x2c, 0x90, 0xf3, 0xbd, 0x92, 0x9a, 0x0f, 0x3d,
		0xdd, 0x26, 0xe2, 0xbd, 0x08, 0x50, 0x06, 0x3e, 0x89, 0x0a, 0x09, 0x3e,
		0x7d, 0x19, 0x35, 0xbd, 0x33, 0x96, 0x53, 0x3d, 0x22, 0x61, 0x14, 0xbe,
		0x68, 0xc1, 0xa3, 0xbd, 0xcb, 0x3d, 0x32, 0xbe, 0x06, 0xc2, 0xa0, 0xbc,
		0x3a, 0xed, 0x02, 0x3e, 0x10, 0xb8, 0x99, 0x3d, 0x41, 0x61, 0x43, 0xbc,
		0x1a, 0x42, 0xd5, 0x3d, 0x2e, 0x79, 0x08, 0x3d, 0x3c, 0xb2, 0x13, 0xbd,
		0x33, 0x10, 0xe2, 0x3d, 0x79, 0x60, 0x04, 0xbd, 0x22, 0x9b, 0x19, 0xbe,
		0x45, 0xd4, 0x4c, 0xbd, 0x91, 0xb3, 0x42, 0x3d, 0xff, 0x5c, 0xdd, 0xbd,
		0xa2, 0x04, 0xc5, 0xbd, 0xf3, 0x16, 0xec, 0x3d, 0xd9, 0xce, 0x37, 0xbc,
		0xa9, 0x3e, 0xcb, 0xbc, 0xe0, 0xa8, 0x95, 0x3d, 0xc6, 0x29, 0x0d, 0xbe,
		0xf8, 0x77, 0x80, 0xbd, 0x43, 0xc8, 0x7d, 0x3d, 0x72, 0x48, 0x35, 0x3d,
		0xf7, 0xc0, 0xba, 0xbd, 0x69, 0x1d, 0x6f, 0xbd, 0x93, 0x76, 0xf7, 0x3c,
		0xd2, 0x1f, 0x25, 0xbe, 0x00, 0x37, 0x71, 0x3d, 0x73, 0xba, 0xd2, 0xbd,
		0xe3, 0xcb, 0xe4, 0xbd, 0x7a, 0x77, 0x05, 0x3e, 0x96, 0xb3, 0xa3, 0x3d,
		0xcc, 0x8d, 0xfa, 0xbd, 0xdf, 0xee, 0xfb, 0x3d, 0xd7, 0x38, 0xa7, 0x3d,
		0x68, 0x92, 0x18, 0xbe, 0x3f, 0x7b, 0x73, 0x3d, 0xf6, 0x6c, 0xd1, 0xbc,
		0xb1, 0x38, 0x3b, 0xbe, 0xab, 0x4f, 0xd6, 0xbd, 0x94, 0xcc, 0x7a, 0x3d,
		0x26, 0x46, 0xe1, 0xba, 0x72, 0x6a, 0xcc, 0x3d, 0xe5, 0x56, 0x83, 0x3d,
		0x3b, 0x3c, 0xf1, 0xbd, 0xd3, 0x67, 0xfa, 0x3d, 0x92, 0x90, 0x9b, 0x3c,
		0x4d, 0x7c, 0xf1, 0xbd, 0xda, 0x38, 0x52, 0xbc, 0x33, 0x64, 0x9c, 0x3d,
		0x37, 0x7d, 0x0a, 0x3e, 0x05, 0xfe, 0xbd, 0xbd, 0xf4, 0x58, 0x03, 0xbe,
		0x9b, 0xa6, 0x49, 0xbd, 0x8a, 0x9c, 0xb1, 0x3b, 0x49, 0x61, 0xa6, 0xbc,
		0xed, 0x4e, 0xa6, 0xbd, 0xf6, 0xab, 0x7b, 0x3d, 0x9f, 0x40, 0x20, 0xbe,
		0xf4, 0xb7, 0xb7, 0xbd, 0xbf, 0xcd, 0xbe, 0xbd, 0x91, 0x46, 0xfc, 0x3d,
		0x40, 0xf1, 0xdc, 0x3d, 0xef, 0xb6, 0x98, 0x3d, 0x61, 0x15, 0x71, 0xbd,
		0x9a, 0x13, 0xb9, 0x3d, 0x75, 0x76, 0x37, 0x3d, 0x14, 0xbf, 0xeb, 0xbc,
		0x0a, 0x84, 0x02, 0x3e, 0xfd, 0x2f, 0xf9, 0xbd, 0xa2, 0x82, 0xa6, 0xbc,
		0xad, 0x36, 0xc6, 0xbd, 0x1e, 0xa3, 0xd0, 0x3c, 0x69, 0x4a, 0x01, 0x3e,
		0x6f, 0x93, 0xa8, 0x3d, 0x3a, 0xc1, 0xc1, 0xbd, 0x77, 0x1c, 0xda, 0x3d,
		0xc2, 0xed, 0xf1, 0x3c, 0x40, 0x7c, 0xcd, 0x3d, 0x97, 0xf6, 0x19, 0x3e,
		0x62, 0xc8, 0x0a, 0x3e, 0x44, 0x0a, 0x2a, 0xbe, 0xd8, 0xf0, 0x12, 0xbe,
		0x24, 0xb9, 0xd1, 0x3d, 0x22, 0x24, 0x60, 0xbd, 0x80, 0xd0, 0x22, 0xbe,
		0xe3, 0x9e, 0x12, 0x3e, 0x39, 0x6e, 0x66, 0x3c, 0xec, 0xf1, 0xbe, 0xbd,
		0x01, 0xfc, 0x36, 0xbd, 0x5f, 0xee, 0xea, 0xbd, 0x8d, 0x11, 0x65, 0xbd,
		0x4f, 0x4b, 0xe0, 0xbd, 0x9b, 0x12, 0xc0, 0xbc, 0x09, 0x8a, 0x07, 0xbd,
		0x57, 0xae, 0xb7, 0xbb, 0x8c, 0xc5, 0x2f, 0x3d, 0x44, 0xef, 0xbb, 0x3d,
		0x6f, 0xb9, 0x81, 0xbd, 0xc3, 0x8d, 0x5e, 0xbd, 0xf7, 0x68, 0x29, 0xbe,
		0x1f, 0x4f, 0x25, 0x3b, 0xa1, 0xe0, 0x8f, 0x3d, 0xab, 0xde, 0xa2, 0xbd,
		0x2d, 0x88, 0xe7, 0xbd, 0x2e, 0xff, 0x7b, 0xbb, 0xa9, 0x0e, 0xa8, 0x3d,
		0x87, 0xa7, 0x56, 0xbc, 0x92, 0xbb, 0xc6, 0x3c, 0x52, 0x53, 0x35, 0xbd,
		0xbf, 0xfc, 0xf7, 0x3d, 0x08, 0x51, 0x8a, 0x3d, 0x68, 0xa4, 0x95, 0x3c,
		0xe9, 0x86, 0xc0, 0xbd, 0x8b, 0x5c, 0xf2, 0x3c, 0x7d, 0x86, 0x57, 0xbd,
		0xcc, 0x8f, 0x33, 0x3b, 0x89, 0x8a, 0x2a, 0xbe, 0x8f, 0xd4, 0x2b, 0x3d,
		0xa0, 0xe1, 0xd8, 0xbd, 0x19, 0xa9, 0x8d, 0x3d, 0xa3, 0x91, 0x9b, 0xbd,
		0xa8, 0xeb, 0x19, 0xbe, 0x57, 0x0d, 0xa7, 0x3d, 0xe4, 0xb3, 0x87, 0xbd,
		0xbe, 0x16, 0x15, 0x3e, 0x7d, 0xcf, 0xb0, 0x3d, 0x1e, 0xcc, 0x07, 0xbe,
		0xd8, 0xf7, 0x58, 0xbd, 0x22, 0x34, 0x85, 0xbd, 0x1b, 0xde, 0x78, 0xbd,
		0x91, 0xdf, 0xa3, 0xbc, 0x8f, 0x69, 0x4c, 0xbc, 0xe1, 0xed, 0x88, 0x3d,
		0x04, 0x76, 0x64, 0xbd, 0xca, 0xd5, 0x8e, 0x3c, 0xa4, 0x35, 0x35, 0x3d,
		0x7b, 0xdb, 0xd9, 0x3d, 0x2d, 0x50, 0xe0, 0xba, 0xbc, 0xcb, 0x0b, 0x3e,
		0x42, 0x9a, 0x4e, 0xbd, 0x0e, 0xb9, 0x1c, 0xbd, 0x4f, 0xfb, 0x54, 0xba,
		0x5d, 0x9d, 0x42, 0x3e, 0xce, 0x8a, 0xcd, 0xbc, 0x02, 0x04, 0x67, 0xbd,
		0x5e, 0x70, 0xef, 0xbd, 0x50, 0x19, 0x38, 0x3c, 0xf2, 0xe6, 0xce, 0xbd,
		0x19, 0xe7, 0x06, 0xbe, 0x72, 0x89, 0xb2, 0xbd, 0xc2, 0xa9, 0xb9, 0xbd,
		0xa2, 0xf3, 0x80, 0xbc, 0x6b, 0xc0, 0x31, 0x3d, 0x30, 0xb0, 0xec, 0x3b,
		0x47, 0x09, 0x3d, 0x3d, 0x34, 0xb9, 0xdb, 0xbd, 0x4c, 0xf3, 0x9c, 0xbc,
		0xad, 0xa0, 0xc2, 0x3d, 0xa5, 0x9f, 0x8f, 0xbd, 0xd7, 0x9a, 0x85, 0x3d,
		0xfd, 0x06, 0xa4, 0xbc, 0x91, 0x0e, 0x12, 0xbe, 0x33, 0x62, 0xac, 0x3d,
		0x7e, 0x9e, 0xb2, 0xbd, 0x5b, 0x82, 0xa9, 0xbd, 0x83, 0xc4, 0xa7, 0x3d,
		0x8e, 0x1e, 0x3d, 0xbd, 0x8f, 0x88, 0xda, 0x3a, 0x28, 0x42, 0x62, 0x3d,
		0x0b, 0x7d, 0x38, 0x3d, 0xdf, 0xd6, 0x9c, 0x3d, 0x7c, 0xcd, 0x7a, 0xbd,
		0x6a, 0x9b, 0x3e, 0xbd, 0xff, 0xd9, 0x93, 0x3d, 0x24, 0x58, 0x8c, 0xbd,
		0x4c, 0xba, 0x5d, 0xbd, 0x62, 0xdd, 0x15, 0x3e, 0x87, 0xcc, 0x3f, 0x3d,
		0xa0, 0x19, 0x11, 0xbd, 0xf0, 0xb1, 0xda, 0x3d, 0x32, 0x57, 0xd8, 0xbd,
		0x54, 0x75, 0x8f, 0x3d, 0xa6, 0x66, 0xfa, 0xbc, 0x6e, 0xa8, 0x17, 0xbe,
		0xb7, 0x4b, 0x7b, 0x3c, 0x9f, 0x6f, 0xb2, 0x3d, 0x7e, 0x68, 0x12, 0x3e,
		0xf7, 0xfc, 0x21, 0xbc, 0x8b, 0x69, 0x8f, 0xbd, 0x30, 0xbf, 0x94, 0xbd,
		0xea, 0x02, 0x0b, 0xbd, 0x8e, 0x8f, 0xe9, 0xbd, 0x7a, 0x16, 0x2f, 0x3d,
		0x3a, 0x42, 0xca, 0xbc, 0xfc, 0xe8, 0x34, 0xbe, 0xe9, 0x6c, 0xbe, 0x3d,
		0xb5, 0x8f, 0xc0, 0xbd, 0x32, 0x4f, 0xcb, 0x3c, 0x7f, 0xb9, 0x36, 0xbe,
		0x13, 0xc7, 0x97, 0xbd, 0xdd, 0xca, 0x46, 0xbc, 0xc3, 0x1d, 0xc9, 0x3c,
		0xe3, 0x8b, 0xba, 0xbd, 0x58, 0xf9, 0xe2, 0xbd, 0x07, 0xd6, 0x31, 0xbe,
		0x03, 0x09, 0x97, 0xbd, 0x2c, 0x3f, 0x18, 0xbe, 0x40, 0x97, 0xc0, 0x3d,
		0x8f, 0x42, 0x29, 0xbe, 0xfa, 0x02, 0x2e, 0xbd, 0x94, 0xab, 0x00, 0xbb,
		0x33, 0x19, 0x88, 0xbd, 0x02, 0x38, 0x3c, 0xbe, 0xb8, 0x59, 0xe9, 0xbb,
		0x22, 0x75, 0x27, 0xbe, 0x6c, 0x21, 0xfb, 0xbd, 0x7c, 0xe3, 0x2b, 0xbe,
		0x6b, 0x77, 0xc9, 0x3c, 0x0c, 0x89, 0x10, 0x3e, 0x83, 0x06, 0xb9, 0xbd,
		0x36, 0x81, 0xf6, 0xbd, 0xfa, 0x7d, 0x27, 0xbe, 0x63, 0xe5, 0xa5, 0x3d,
		0x65, 0x7a, 0x79, 0x3d, 0xaa, 0x31, 0x80, 0x3d, 0x32, 0xca, 0x1b, 0xbe,
		0xdb, 0x7b, 0x4f, 0xbd, 0x39, 0x1c, 0xa7, 0x3d, 0x91, 0xe8, 0x08, 0xbd,
		0xdb, 0xc8, 0x08, 0xbe, 0x4b, 0x6f, 0xf8, 0x3c, 0xf1, 0xac, 0x32, 0x3d,
		0x78, 0xe9, 0x9a, 0x3d, 0x15, 0x80, 0x0e, 0x3e, 0x0b, 0x77, 0x5f, 0x3c,
		0xb2, 0x03, 0xb2, 0xbd, 0x8d, 0xd7, 0xbc, 0x3d, 0x34, 0x6b, 0x18, 0x3d,
		0x0e, 0xac, 0x0f, 0xbe, 0xff, 0x65, 0x16, 0xbe, 0x58, 0xa9, 0xf8, 0x3d,
		0xbf, 0x19, 0x91, 0x3d, 0xf6, 0xc5, 0x09, 0xbe, 0x71, 0x90, 0x2a, 0xbe,
		0x50, 0xe5, 0x52, 0x3d, 0xef, 0xb0, 0x26, 0x3b, 0xe1, 0xb6, 0xa5, 0xbd,
		0x39, 0x28, 0xbe, 0x3d, 0xfc, 0xa3, 0x9f, 0xbd, 0x2a, 0x74, 0xee, 0x3c,
		0xec, 0x4b, 0x01, 0xbe, 0xd4, 0x62, 0x3a, 0xbd, 0x83, 0x32, 0x5d, 0xbd,
		0x5d, 0xca, 0x05, 0xbd, 0xc5, 0x52, 0x7a, 0x3d, 0x88, 0x18, 0xd2, 0x3d,
		0x65, 0x01, 0xf8, 0x3d, 0xca, 0x10, 0xfa, 0x3d, 0xdc, 0x5b, 0x0c, 0xbe,
		0xe9, 0x2e, 0x40, 0x3d, 0x42, 0x14, 0x78, 0xbd, 0xb4, 0x05, 0x7a, 0x3d,
		0x4a, 0xf8, 0xaa, 0x3d, 0x66, 0xf0, 0xed, 0x3d, 0xa2, 0x7e, 0x83, 0x3d,
		0xa1, 0x33, 0x5c, 0xbd, 0x7e, 0xf4, 0xc6, 0xbd, 0x75, 0x3e, 0x08, 0xbe,
		0xa0, 0x33, 0x93, 0xbd, 0xc3, 0xcc, 0x32, 0xbe, 0x24, 0x71, 0x8e, 0xbd,
		0x8c, 0x77, 0x2f, 0xbe, 0x88, 0x71, 0xd7, 0xbd, 0xf4, 0xaa, 0xc5, 0x3d,
		0xd8, 0x12, 0x34, 0x3d, 0x50, 0x79, 0x22, 0xbe, 0xce, 0x93, 0x38, 0xbe,
		0x9a, 0x0b, 0x86, 0x3d, 0x6c, 0x11, 0xc7, 0x3d, 0x25, 0x40, 0x06, 0x3e,
		0xc8, 0x4c, 0x1a, 0x3d, 0x86, 0xa9, 0x84, 0xbd, 0xa0, 0xb2, 0xd2, 0xbc,
		0x6a, 0x22, 0x8b, 0x3d, 0xcc, 0x5a, 0x22, 0xbe, 0x94, 0xce, 0xe4, 0x3d,
		0xad, 0x1d, 0xde, 0x3c, 0xc7, 0xd3, 0xe7, 0x3d, 0x1a, 0xc2, 0xe5, 0xbd,
		0x04, 0xa0, 0x07, 0x3e, 0x5c, 0x33, 0x10, 0xbe, 0xea, 0xd0, 0xdb, 0xbd,
		0xbb, 0x26, 0x81, 0xbc, 0x98, 0x3b, 0x9e, 0x3c, 0x07, 0x55, 0xd3, 0x3c,
		0x2e, 0x7d, 0xf5, 0x3d, 0x12, 0x0d, 0x9c, 0x3d, 0x65, 0xc9, 0x38, 0xbd,
		0x0a, 0x31, 0x0a, 0x3e, 0x7c, 0x30, 0xb3, 0x3d, 0x01, 0x51, 0xbb, 0xbd,
		0x94, 0x96, 0x84, 0x3d, 0x62, 0x2d, 0x00, 0xbd, 0x0f, 0x18, 0xc9, 0xbd,
		0x04, 0xcd, 0x2c, 0xbe, 0x53, 0x00, 0xa8, 0xbd, 0x31, 0x63, 0xb8, 0x3d,
		0x35, 0x95, 0x27, 0xbe, 0x76, 0x63, 0xa7, 0xbd, 0xdd, 0x63, 0xc4, 0x3d,
		0xbd, 0x28, 0x2c, 0xbe, 0xdc, 0x0b, 0x20, 0xbe, 0x03, 0x07, 0xac, 0x3d,
		0xe0, 0xdc, 0xd7, 0x3d, 0x25, 0xa8, 0x21, 0x3a, 0xd3, 0xc3, 0xc8, 0xbd,
		0xb8, 0x05, 0xe7, 0xbd, 0x62, 0x9f, 0x72, 0xbd, 0x73, 0xba, 0x4e, 0xbd,
		0x04, 0xf3, 0x14, 0xbd, 0x65, 0xf8, 0xd2, 0xbd, 0xfb, 0x07, 0x14, 0xbe,
		0x7e, 0x84, 0xf2, 0x3c, 0x84, 0x0e, 0x0e, 0xbe, 0xa9, 0x1b, 0x06, 0x3c,
		0x13, 0xf7, 0x27, 0xbd, 0x5a, 0xa2, 0xb3, 0xbd, 0xbb, 0xbc, 0xcd, 0xbd,
		0xac, 0x05, 0x93, 0x3c, 0x27, 0xdb, 0xd3, 0x3d, 0x90, 0xc6, 0xc6, 0xbd,
		0x76, 0x4c, 0x29, 0xbe, 0x59, 0x57, 0xea, 0xbd, 0x77, 0xf1, 0x94, 0xbd,
		0x33, 0x2b, 0x31, 0xbd, 0x25, 0xdf, 0xdc, 0x3d, 0x5c, 0x62, 0x0b, 0xbb,
		0xf0, 0xd4, 0xb9, 0x3d, 0x69, 0xdc, 0x0d, 0xbe, 0xa6, 0x9b, 0xd2, 0x3c,
		0x92, 0x5b, 0xdc, 0xbd, 0x4d, 0xc1, 0x37, 0xbe, 0x08, 0x98, 0x1f, 0xbe,
		0xd4, 0x96, 0x27, 0xbe, 0xc9, 0x56, 0x16, 0x3d, 0x9d, 0x9c, 0x78, 0x3d,
		0x36, 0x82, 0xa0, 0xbd, 0xa2, 0xdf, 0x30, 0x3e, 0xa1, 0xe8, 0x53, 0xbe,
		0x73, 0x25, 0x40, 0xba, 0x23, 0x90, 0x9f, 0xbd, 0x82, 0x25, 0x03, 0xbe,
		0xb1, 0x13, 0x03, 0xbe, 0x14, 0x62, 0x14, 0xbe, 0xeb, 0xe6, 0xcf, 0xbc,
		0x2f, 0xaa, 0x53, 0x3c, 0xd8, 0xd2, 0x1a, 0xbe, 0x51, 0x3b, 0x0f, 0x3e,
		0x16, 0x5d, 0x6a, 0x3d, 0x19, 0xfa, 0x29, 0x3d, 0x65, 0x70, 0x7c, 0x3d,
		0x08, 0x88, 0xe7, 0xba, 0xa0, 0xb5, 0x82, 0xbb, 0x67, 0x44, 0xca, 0x3c,
		0x51, 0x4f, 0x01, 0xbe, 0x05, 0x22, 0x13, 0xbe, 0x74, 0x4b, 0xe8, 0x3d,
		0x3a, 0xad, 0xfc, 0x3c, 0xec, 0x96, 0x2a, 0x3d, 0xa1, 0xf2, 0xe7, 0x3b,
		0xee, 0xdd, 0x99, 0xbd, 0x40, 0xfe, 0x92, 0x3d, 0x3a, 0x7b, 0x5a, 0xbd,
		0xdb, 0x53, 0xa7, 0x3d, 0x10, 0xb8, 0x01, 0x3c, 0x53, 0x4f, 0x20, 0xbe,
		0xb6, 0x6d, 0x22, 0x3e, 0x10, 0x53, 0xa8, 0x3d, 0x58, 0xe3, 0x18, 0xbe,
		0x9e, 0x98, 0xc3, 0x3d, 0xff, 0x3a, 0x66, 0x3d, 0xd4, 0xa5, 0xa4, 0x3c,
		0x7f, 0x33, 0xfe, 0xbd, 0x55, 0xcf, 0x83, 0xbc, 0x78, 0xa4, 0x19, 0xbe,
		0x21, 0xb1, 0x94, 0xbb, 0x78, 0xa4, 0xd3, 0x3d, 0x2a, 0xd7, 0x7d, 0xbd,
		0x7e, 0x51, 0x12, 0xbd, 0x86, 0x5d, 0x0f, 0xbe, 0x92, 0x2f, 0xc0, 0xbd,
		0xba, 0x7a, 0x08, 0xbe, 0x7c, 0x81, 0x15, 0xbe, 0x1f, 0x10, 0x99, 0xbc,
		0xa0, 0x4f, 0xf4, 0xbd, 0xa0, 0x48, 0xbb, 0xbd, 0x08, 0x61, 0x0b, 0xbe,
		0x15, 0x6f, 0x91, 0xbd, 0xbc, 0x12, 0xeb, 0x3d, 0x16, 0x6f, 0x61, 0x3d,
		0x1f, 0x49, 0x34, 0xbd, 0xd2, 0xf0, 0xf2, 0xbd, 0x3d, 0xe4, 0xe5, 0xbd,
		0xea, 0x2c, 0xc5, 0x3d, 0xc3, 0x09, 0x06, 0x3d, 0xe8, 0x5a, 0x57, 0xbd,
		0x36, 0xb8, 0x86, 0x3d, 0x8c, 0x9c, 0x20, 0xbe, 0x58, 0x66, 0xa9, 0x3d,
		0x04, 0xfc, 0x55, 0xbd, 0x7e, 0xe6, 0x45, 0x3d, 0x44, 0x29, 0x00, 0x3e,
		0x9d, 0x6d, 0xa6, 0xbc, 0x91, 0x9b, 0xdf, 0x3d, 0x97, 0xdd, 0x9d, 0x3d,
		0x39, 0xa0, 0x73, 0xbd, 0xb5, 0xbe, 0xdc, 0x3c, 0x0d, 0xcc, 0x20, 0x3d,
		0x08, 0x75, 0x21, 0xbe, 0x94, 0x42, 0x76, 0xbc, 0x2b, 0x9e, 0x50, 0xbe,
		0x1d, 0x1e, 0x65, 0xbc, 0x04, 0x60, 0xde, 0xbd, 0x8f, 0xb0, 0x1b, 0xbe,
		0xbe, 0xc7, 0x60, 0xbd, 0x6f, 0xe2, 0x0f, 0xbc, 0xa6, 0xfb, 0xcf, 0x3d,
		0x5c, 0xa9, 0xb9, 0xbd, 0x38, 0xc6, 0xec, 0xbd, 0xb3, 0xc1, 0xd9, 0xbd,
		0x90, 0x6d, 0x2f, 0xbe, 0x03, 0xae, 0x6f, 0x3d, 0x38, 0x94, 0xd8, 0xbd,
		0x85, 0x48, 0xd6, 0x3d, 0x9f, 0xe4, 0x41, 0xbe, 0x98, 0x93, 0x2b, 0x3d,
		0xbd, 0x15, 0xe2, 0xbd, 0xcb, 0x44, 0xdb, 0xbc, 0x49, 0x2a, 0xe4, 0x3c,
		0xd6, 0x8a, 0xa6, 0xbc, 0x7b, 0x1a, 0xc3, 0x3d, 0xb2, 0xd5, 0x93, 0xbc,
		0x57, 0x3e, 0x1b, 0x3e, 0x21, 0x2a, 0x91, 0xbd, 0xca, 0xdf, 0x6c, 0x3c,
		0x23, 0xdb, 0x28, 0xbd, 0x57, 0x73, 0x27, 0xbe, 0xc4, 0x0a, 0xfb, 0x3c,
		0x55, 0x3b, 0xb8, 0xbc, 0x14, 0x51, 0x51, 0x3d, 0x22, 0x54, 0x10, 0xbe,
		0x70, 0x91, 0x1e, 0x3e, 0x41, 0x74, 0xdb, 0xbd, 0x01, 0x22, 0x94, 0xbd,
		0xd0, 0x88, 0xa3, 0x3c, 0x2b, 0x59, 0xd1, 0xbd, 0x7d, 0x1b, 0xc1, 0x3d,
		0x9f, 0x79, 0x3f, 0xbd, 0x19, 0xe5, 0x9c, 0xbd, 0x28, 0x78, 0xd2, 0xbd,
		0x1a, 0x22, 0xc7, 0xbc, 0xbb, 0xdc, 0x39, 0x3d, 0xbf, 0xac, 0x2f, 0xbc,
		0x87, 0xa3, 0xc2, 0xbd, 0xa3, 0xe4, 0x44, 0x3d, 0xf1, 0xaf, 0xdf, 0xbd,
		0x4e, 0xcc, 0xdb, 0xbd, 0x53, 0x6c, 0x9b, 0xbd, 0x82, 0x87, 0x24, 0x3e,
		0x43, 0xe8, 0xce, 0x3c, 0x8b, 0xf2, 0x11, 0xbe, 0x52, 0x32, 0x1d, 0x3e,
		0xe1, 0x27, 0x03, 0x3e, 0x2a, 0x0e, 0x35, 0xbd, 0x42, 0xe5, 0x1d, 0xbd,
		0xf5, 0x1e, 0xbc, 0xbd, 0x70, 0x06, 0x66, 0xbd, 0xae, 0x25, 0x01, 0x3e,
		0xb1, 0x2f, 0xe1, 0x3c, 0xc2, 0x4f, 0x7b, 0xbd, 0x92, 0x60, 0xf9, 0x3d,
		0x40, 0x00, 0x17, 0x3e, 0x06, 0xba, 0x06, 0x3e, 0x53, 0x49, 0x95, 0x3b,
		0xe8, 0x28, 0x9a, 0x3c, 0x21, 0xa8, 0x0d, 0xbd, 0x23, 0x81, 0xcb, 0xbc,
		0x58, 0x38, 0x19, 0x3e, 0x43, 0x4c, 0x9a, 0x3c, 0x94, 0x28, 0xbb, 0x3c,
		0x48, 0x73, 0x04, 0x3d, 0xb8, 0xac, 0xa2, 0x3d, 0x96, 0x9c, 0x7b, 0xbd,
		0x67, 0xd9, 0x40, 0x3c, 0x17, 0x22, 0x28, 0x3b, 0xbb, 0x99, 0x26, 0xbe,
		0x6c, 0x8d, 0xe2, 0xbd, 0x51, 0x42, 0xf8, 0x3d, 0xc4, 0xb0, 0x2e, 0xbe,
		0x36, 0xbc, 0xb9, 0x3d, 0xc0, 0x79, 0xe3, 0xbd, 0x4b, 0x74, 0x9d, 0xbd,
		0x8f, 0xd4, 0x37, 0xbe, 0x5c, 0x55, 0x00, 0x3e, 0x78, 0x53, 0x6f, 0xba,
		0x22, 0xdd, 0xff, 0xbd, 0x56, 0xc0, 0x24, 0xbd, 0x25, 0x5e, 0xd4, 0xbd,
		0xde, 0x62, 0x05, 0xbe, 0xb9, 0x6f, 0xbd, 0x3d, 0x58, 0x0e, 0xfb, 0xbc,
		0xd2, 0x29, 0x07, 0x3d, 0x80, 0xfb, 0x03, 0xbe, 0x80, 0x0d, 0x79, 0x3b,
		0x7f, 0x26, 0x25, 0xbe, 0x1d, 0xd1, 0x09, 0x3d, 0xff, 0x61, 0x96, 0xbd,
		0x4d, 0xb5, 0xc1, 0x3d, 0x59, 0x0d, 0x8b, 0xbd, 0x31, 0xdb, 0xed, 0xbd,
		0x60, 0x2c, 0xf0, 0x3c, 0x0e, 0x47, 0xc4, 0xbd, 0x5c, 0x28, 0x01, 0xbe,
		0xdd, 0x55, 0x00, 0xbe, 0x4e, 0xc4, 0x64, 0x3c, 0x86, 0xbb, 0xa3, 0xbc,
		0x0c, 0x2d, 0xef, 0xbd, 0xfa, 0x26, 0xff, 0xbd, 0xf5, 0xe4, 0x53, 0xbd,
		0xd4, 0x87, 0xb4, 0x3d, 0x1f, 0x19, 0xe7, 0xbd, 0xf7, 0x15, 0xe5, 0x3d,
		0x68, 0xd6, 0x2a, 0x3d, 0xf7, 0x13, 0x52, 0xbd, 0x78, 0x0e, 0x6c, 0xbd,
		0x05, 0x8e, 0xbc, 0x3d, 0xc8, 0x5e, 0xf9, 0x3d, 0xc9, 0xa3, 0x6f, 0x3b,
		0x62, 0x9d, 0x0b, 0x3e, 0x6c, 0x9e, 0x11, 0xbe, 0xfc, 0x82, 0x03, 0x3d,
		0x73, 0x7f, 0xa9, 0xbd, 0x82, 0xe3, 0x9c, 0xbd, 0x25, 0xa7, 0xe2, 0x3c,
		0x62, 0x7c, 0x9b, 0x3d, 0x92, 0x0e, 0xc5, 0xbd, 0xa6, 0x7e, 0x6c, 0xbd,
		0xcf, 0xde, 0x97, 0xbd, 0x76, 0x22, 0xc8, 0x3d, 0x2e, 0xcd, 0x17, 0xbe,
		0x5d, 0x2b, 0xa5, 0x3d, 0x2a, 0x03, 0x9d, 0xbd, 0x75, 0xbc, 0x30, 0xbd,
		0x0b, 0x24, 0x20, 0xbd, 0x5e, 0x14, 0x4d, 0x3d, 0x21, 0x9a, 0x3f, 0xbd,
		0xaf, 0xfb, 0x82, 0x3b, 0x87, 0x44, 0xf4, 0xbc, 0x77, 0x22, 0x0a, 0x3d,
		0x2c, 0x08, 0xd8, 0x3d, 0xb9, 0x77, 0x14, 0x3e, 0xd7, 0x54, 0xd4, 0xbd,
		0xea, 0x2a, 0x78, 0x3d, 0xac, 0x5b, 0xbf, 0xbd, 0xe5, 0x30, 0xd2, 0xbd,
		0x38, 0xe1, 0x27, 0x3d, 0x90, 0x6d, 0x15, 0xbe, 0x28, 0xb6, 0x03, 0x3e,
		0xa7, 0x4e, 0xa6, 0xbd, 0xb1, 0x68, 0x51, 0xbd, 0xea, 0x26, 0xb4, 0xbd,
		0x04, 0xbf, 0x76, 0x3d, 0x9e, 0x2a, 0xf5, 0x3c, 0x80, 0x26, 0xf1, 0xbd,
		0xf3, 0x20, 0xd1, 0x3d, 0xe0, 0x57, 0xba, 0x3d, 0x32, 0x8b, 0x06, 0x3d,
		0xa1, 0x69, 0xdb, 0x3c, 0xde, 0xf8, 0x3f, 0xbe, 0x8d, 0x3e, 0x64, 0xbd,
		0x2b, 0x9c, 0x14, 0xbe, 0x11, 0xf8, 0x09, 0xbe, 0xde, 0xd7, 0xe4, 0xbd,
		0x1a, 0xd5, 0xc3, 0xbd, 0x4f, 0x31, 0x42, 0xbd, 0x9a, 0xdb, 0xc7, 0x3c,
		0x3a, 0x06, 0x9b, 0x3d, 0xb0, 0x97, 0x0c, 0xbe, 0x17, 0xc6, 0xe6, 0x3c,
		0x65, 0x09, 0x83, 0xbd, 0xd1, 0x0c, 0xf7, 0x3d, 0x57, 0x08, 0x4b, 0x3d,
		0x61, 0xfb, 0xe3, 0xbc, 0xd2, 0x57, 0x3f, 0x3d, 0x44, 0x55, 0x26, 0x3b,
		0x3f, 0x00, 0xd1, 0xbc, 0x06, 0x9f, 0x40, 0x3d, 0x8b, 0xfd, 0x01, 0xbe,
		0x7c, 0x9f, 0xff, 0x3d, 0xa1, 0xb2, 0xaf, 0xbd, 0x30, 0x71, 0x05, 0xbe,
		0xea, 0xe8, 0xae, 0x3b, 0xc8, 0x5b, 0x49, 0x3d, 0xdc, 0x3e, 0x16, 0xbe,
		0xa6, 0xaf, 0x9b, 0x3c, 0xd8, 0x09, 0x84, 0x3d, 0xb6, 0x97, 0xb2, 0xbd,
		0x4f, 0x05, 0xbd, 0xbd, 0x67, 0x54, 0xcf, 0xbd, 0x1d, 0x96, 0xb8, 0x3d,
		0xa4, 0x6a, 0x28, 0xbe, 0xd9, 0xe8, 0x61, 0xbd, 0xca, 0x5f, 0x02, 0xbd,
		0x68, 0x0f, 0xe2, 0xbb, 0x8a, 0x29, 0xcd, 0x3d, 0x2d, 0xcd, 0x1e, 0xbe,
		0x14, 0xb1, 0x00, 0xbe, 0x6e, 0xdd, 0x26, 0x3d, 0xab, 0xbf, 0x1d, 0x3e,
		0xd0, 0xc7, 0x81, 0x3d, 0xb7, 0x0d, 0x4d, 0xbe, 0xc7, 0x48, 0xa4, 0xbd,
		0xae, 0x49, 0x3a, 0x3d, 0x44, 0x6f, 0x03, 0xbc, 0xa4, 0xeb, 0xea, 0xba,
		0x7b, 0x99, 0x8d, 0xbd, 0x50, 0xc7, 0x9e, 0xbd, 0xb4, 0x46, 0x86, 0xbd,
		0x20, 0x1d, 0x49, 0x3d, 0x76, 0x57, 0xe4, 0xbd, 0x1d, 0x8f, 0x82, 0xbd,
		0x6b, 0x2a, 0xd8, 0xbd, 0x0a, 0x3b, 0x19, 0xbe, 0x0b, 0x3f, 0x14, 0xbd,
		0x8a, 0x2c, 0xfa, 0xbd, 0x53, 0xb2, 0x23, 0xbe, 0x9f, 0x95, 0x7d, 0x3d,
		0xb4, 0x25, 0xbb, 0xbd, 0x31, 0xe2, 0x1f, 0x3d, 0x92, 0x87, 0x0a, 0x3e,
		0xa0, 0x3d, 0x9c, 0xbd, 0x85, 0x04, 0x16, 0x3e, 0xaa, 0xb8, 0x28, 0xbe,
		0x8f, 0xcc, 0x8a, 0xbb, 0xc8, 0x91, 0xd4, 0x3b, 0x0d, 0x20, 0x56, 0xbd,
		0xf1, 0x1e, 0xfd, 0xbd, 0x87, 0x22, 0x0e, 0x3d, 0x81, 0x3b, 0xc4, 0x3d,
		0x4d, 0x55, 0x42, 0xbc, 0x3a, 0x6a, 0xb5, 0xbd, 0xac, 0x8b, 0x61, 0xbe,
		0x71, 0x2e, 0x81, 0x3d, 0x56, 0xcc, 0x8f, 0xbd, 0x25, 0x21, 0x73, 0x3c,
		0x88, 0xc4, 0x34, 0x3e, 0x8e, 0x7b, 0x82, 0x3d, 0x25, 0x92, 0xbb, 0x3d,
		0x08, 0x0c, 0xc7, 0x3d, 0xf4, 0x26, 0x9e, 0xbc, 0x9d, 0xe3, 0x1b, 0x3d,
		0x49, 0xb4, 0xf0, 0xbd, 0x00, 0xc7, 0xcf, 0x3d, 0x29, 0xa3, 0x0f, 0xbe,
		0xf1, 0xfa, 0x3a, 0x3d, 0x00, 0x12, 0xbb, 0xba, 0xbb, 0xd2, 0x07, 0x3e,
		0x93, 0xbb, 0xaa, 0x3d, 0x66, 0x79, 0x2d, 0x3e, 0x22, 0x94, 0x29, 0xbd,
		0x9d, 0x3f, 0x43, 0x3d, 0xc1, 0xa4, 0x51, 0xbc, 0x83, 0x35, 0xaa, 0xbd,
		0xe8, 0x90, 0x1f, 0xbe, 0x88, 0x25, 0xc7, 0xbd, 0xfa, 0x12, 0xe8, 0x3c,
		0x4e, 0x5e, 0x07, 0x3e, 0x62, 0xb6, 0x36, 0xbe, 0xa8, 0x1f, 0x5c, 0x3d,
		0x6d, 0xaf, 0x14, 0x3e, 0x26, 0xcd, 0xaf, 0x3d, 0x94, 0xf9, 0xa2, 0xbd,
		0xf9, 0x99, 0x8d, 0x3c, 0xc3, 0xb8, 0x3d, 0xbe, 0x23, 0x6f, 0xc3, 0xbd,
		0xd9, 0x41, 0x77, 0x3c, 0x6b, 0xcd, 0xc1, 0x3d, 0x09, 0x42, 0x0c, 0xbe,
		0xb0, 0x6e, 0xb9, 0xbd, 0x06, 0x02, 0xb9, 0x3d, 0x08, 0x9a, 0x2f, 0xbe,
		0xc1, 0x82, 0x9e, 0xbd, 0x97, 0xd4, 0xa6, 0xbd, 0x20, 0x59, 0x69, 0x3d,
		0x5f, 0x6e, 0xa3, 0xbd, 0xd6, 0xfb, 0xf3, 0x3d, 0x0c, 0x9a, 0xf3, 0x3d,
		0xfe, 0x89, 0x18, 0xbc, 0xc0, 0x07, 0xc9, 0x3d, 0xba, 0x0b, 0x04, 0xbe,
		0x60, 0x3f, 0xc0, 0x3c, 0xe3, 0xd1, 0xe2, 0x3d, 0x36, 0x9b, 0x3e, 0x3b,
		0xcc, 0xef, 0x15, 0xbd, 0xf0, 0x38, 0xad, 0x3d, 0x9b, 0x87, 0x02, 0xbe,
		0x4f, 0x66, 0x00, 0x3e, 0x08, 0x0f, 0xdf, 0x3d, 0x1d, 0xd7, 0x17, 0xbe,
		0xce, 0x9b, 0xe6, 0xbd, 0x3c, 0x7a, 0x21, 0x3e, 0xed, 0x01, 0xa3, 0x3c,
		0xc7, 0xe1, 0xc8, 0xbd, 0x3e, 0xe7, 0xfb, 0xbd, 0x29, 0x36, 0x77, 0xbd,
		0xc2, 0x88, 0x61, 0x3d, 0x72, 0xec, 0xea, 0xbd, 0xce, 0x15, 0x96, 0xbd,
		0x4a, 0xc9, 0x70, 0xbd, 0xbb, 0xfa, 0x18, 0x3e, 0xf7, 0x8d, 0x34, 0x3d,
		0xd1, 0x73, 0xb9, 0x3d, 0x18, 0x47, 0x1f, 0xbe, 0x71, 0xaf, 0x2f, 0x3c,
		0xa5, 0x2d, 0x6c, 0xbd, 0xb3, 0xcf, 0xdc, 0x3d, 0x5d, 0x0b, 0xfa, 0x3d,
		0x2b, 0xac, 0xff, 0x3d, 0xf1, 0x7c, 0x42, 0x3e, 0x11, 0x72, 0x10, 0xbe,
		0xb6, 0xfb, 0xf9, 0x3d, 0x88, 0x97, 0x22, 0x3c, 0x7a, 0x0c, 0xf0, 0xbc,
		0xd5, 0x6e, 0x1f, 0xbd, 0xef, 0x2f, 0x11, 0x3e, 0x62, 0x33, 0x49, 0xbc,
		0xb6, 0x24, 0x2c, 0xbe, 0x9b, 0x30, 0x52, 0xbd, 0x05, 0x24, 0x87, 0x3d,
		0x70, 0x98, 0xef, 0x3d, 0x90, 0xb3, 0x01, 0xbe, 0xaf, 0x05, 0x7d, 0x3c,
		0xfe, 0x72, 0x5d, 0x3d, 0xcd, 0x29, 0xb9, 0xbd, 0x2b, 0x03, 0x39, 0xbe,
		0xaa, 0x95, 0x20, 0xbe, 0x5a, 0x8b, 0x53, 0xbd, 0x28, 0x56, 0x12, 0xbe,
		0xf5, 0x29, 0x2c, 0xbe, 0x45, 0x73, 0x0a, 0xbe, 0xbd, 0x90, 0x08, 0x3d,
		0xce, 0x39, 0xfa, 0x3d, 0x8c, 0xe5, 0x29, 0xbd, 0x85, 0xcd, 0x24, 0xbe,
		0xee, 0xf6, 0x40, 0x3d, 0x60, 0xb1, 0xaf, 0xbd, 0x56, 0x81, 0xdb, 0x3b,
		0x3d, 0x6d, 0xfc, 0xbd, 0x84, 0x1d, 0xa5, 0xbd, 0x03, 0xc4, 0x9e, 0xbd,
		0xaf, 0xfa, 0x11, 0xbe, 0x55, 0x34, 0x30, 0xbe, 0x66, 0xca, 0xbd, 0xbd,
		0x51, 0x0b, 0x83, 0x3d, 0x31, 0x88, 0xe4, 0xbd, 0xd9, 0xc0, 0x16, 0xbc,
		0xd1, 0xba, 0x01, 0xbd, 0x24, 0xc6, 0xef, 0xbc, 0x5d, 0x7f, 0x27, 0xbe,
		0x1b, 0x01, 0xe3, 0xbd, 0xaa, 0x55, 0x41, 0xbd, 0x4b, 0x7c, 0x34, 0xbe,
		0x71, 0xd5, 0x70, 0xbd, 0xa1, 0xc2, 0xf6, 0x3c, 0xb6, 0x47, 0x12, 0xbd,
		0x43, 0x7d, 0xd0, 0xbd, 0x8c, 0xf3, 0x16, 0xbe, 0xa1, 0x08, 0x00, 0xbe,
		0x9a, 0x92, 0xb0, 0x3d, 0xf7, 0x55, 0xec, 0x3d, 0xe0, 0x8b, 0x8e, 0x3c,
		0x94, 0x01, 0x9e, 0x3b, 0x6a, 0x11, 0x10, 0xbe, 0xeb, 0xda, 0xd3, 0xbb,
		0x0c, 0x7b, 0x81, 0xbd, 0x3b, 0xfd, 0x75, 0xbd, 0xb4, 0x40, 0x1c, 0xbe,
		0xbc, 0x0f, 0x89, 0x3d, 0x7d, 0x94, 0x9f, 0xba, 0xbd, 0xb8, 0x15, 0x3e,
		0x9c, 0x32, 0xa8, 0xbd, 0xdc, 0x71, 0x25, 0xbe, 0x4f, 0x39, 0xb7, 0xbd,
		0xed, 0x49, 0xf6, 0x3c, 0xea, 0x06, 0x1a, 0xbd, 0x67, 0x74, 0xa6, 0x3d,
		0x91, 0x94, 0x8c, 0x3d, 0xb8, 0x73, 0x67, 0x3b, 0xa3, 0x9d, 0x0c, 0xbe,
		0x62, 0x49, 0x06, 0x3e, 0x6f, 0xcb, 0xa6, 0xbd, 0x47, 0xb4, 0x1c, 0xbe,
		0xc2, 0xd4, 0xca, 0x3b, 0xe7, 0x89, 0xd6, 0xbd, 0xa3, 0xcf, 0x9f, 0xbd,
		0xf2, 0x87, 0xeb, 0x3b, 0xe6, 0x54, 0x87, 0xbc, 0xf7, 0xbb, 0x25, 0xbc,
		0x95, 0xe7, 0x91, 0xbd, 0x52, 0xf5, 0xdc, 0x3d, 0x56, 0x26, 0xdd, 0xbd,
		0xc6, 0xfb, 0xbe, 0x3d, 0x23, 0x19, 0x08, 0xbd, 0x3e, 0x3f, 0x81, 0x3c,
		0x49, 0xa0, 0x04, 0x3e, 0x3f, 0xfa, 0xd2, 0x3d, 0x9c, 0xa3, 0xee, 0x3c,
		0x0c, 0x63, 0x8a, 0x3d, 0x7c, 0x03, 0xce, 0x3c, 0x2d, 0x02, 0x9b, 0x3d,
		0x21, 0x6a, 0x12, 0x3d, 0x48, 0xda, 0x98, 0xbd, 0x6e, 0x5d, 0x1b, 0xbe,
		0x51, 0x19, 0xdc, 0xbd, 0x37, 0xcd, 0x24, 0xbe, 0x43, 0x95, 0x01, 0x3d,
		0x30, 0x84, 0xbb, 0x3d, 0xf8, 0xf8, 0xa9, 0xbd, 0xb0, 0xcf, 0x63, 0xbe,
		0x72, 0x49, 0xf8, 0xbd, 0x28, 0x3c, 0xe0, 0xbd, 0x76, 0x06, 0x95, 0x3d,
		0x21, 0x28, 0x7e, 0xbd, 0x51, 0x5a, 0xc2, 0x3d, 0x7a, 0xcd, 0xa6, 0x3d,
		0x87, 0x6d, 0xad, 0x3d, 0x8a, 0x13, 0x2d, 0x3d, 0xf8, 0x67, 0x10, 0xbe,
		0xc8, 0x24, 0x8e, 0xba, 0x22, 0xb2, 0x08, 0xbe, 0x2b, 0x87, 0x0b, 0xbe,
		0xde, 0x81, 0x8b, 0xbd, 0xb4, 0x99, 0xf4, 0xbd, 0xd6, 0x19, 0x06, 0x3d,
		0x09, 0xa7, 0x3e, 0xbe, 0x1e, 0x05, 0x55, 0xbb, 0x0a, 0x50, 0xc1, 0x3d,
		0xef, 0x45, 0x9b, 0x3d, 0x6f, 0x42, 0x9e, 0x3c, 0x78, 0x0a, 0xa1, 0xbd,
		0xeb, 0xb3, 0x87, 0x3c, 0x46, 0x56, 0x36, 0xbb, 0x1d, 0x10, 0x09, 0xbe,
		0xb3, 0xe6, 0x4d, 0xbe, 0x8a, 0xcd, 0x90, 0xbd, 0x82, 0xa2, 0x93, 0xbd,
		0x88, 0x75, 0xd4, 0xbd, 0xc2, 0xf1, 0xe5, 0xbd, 0x36, 0xe9, 0x5f, 0xbc,
		0xe2, 0x2c, 0xf3, 0xbd, 0x8c, 0xe0, 0x95, 0xbd, 0x96, 0x1e, 0x2d, 0xbe,
		0x68, 0x2b, 0xe5, 0xbd, 0xbc, 0x6f, 0x55, 0x3b, 0x3c, 0x2e, 0x97, 0xbb,
		0x96, 0x5c, 0x45, 0xbe, 0xbf, 0x0b, 0x10, 0xbe, 0xb9, 0x43, 0x47, 0x3d,
		0x7c, 0x1b, 0x2f, 0xbd, 0x51, 0xd5, 0x20, 0x3d, 0x26, 0xe3, 0x70, 0x3d,
		0x7e, 0x23, 0x83, 0xbd, 0x3c, 0xfa, 0xd5, 0xbd, 0x17, 0x3e, 0xe3, 0x3d,
		0x15, 0x3c, 0xd8, 0xbd, 0xdf, 0x48, 0x6f, 0xbd, 0xdd, 0xb3, 0x4b, 0x3d,
		0x60, 0xee, 0x37, 0xbd, 0x1b, 0x0a, 0xf6, 0x3d, 0x49, 0xdd, 0xab, 0x3d,
		0xb1, 0xde, 0x25, 0x3e, 0xbf, 0x8a, 0x8a, 0xbd, 0xeb, 0x2f, 0x1e, 0xbe,
		0x44, 0xa9, 0x89, 0x3d, 0x25, 0x6a, 0x08, 0xbd, 0xf2, 0xb0, 0x39, 0x3d,
		0x01, 0x8c, 0x33, 0xbb, 0x1c, 0x70, 0xe7, 0x3d, 0xb5, 0x5d, 0xe8, 0x3d,
		0x6d, 0xc2, 0x61, 0xbd, 0x1b, 0x7c, 0x03, 0x3e, 0x24, 0x64, 0x0a, 0x3e,
		0xb1, 0x2f, 0xcd, 0xbd, 0x78, 0x94, 0x18, 0x3e, 0xeb, 0xed, 0x77, 0xbd,
		0x66, 0x04, 0x87, 0xbd, 0xf8, 0x3b, 0x05, 0x3c, 0x71, 0x81, 0x01, 0x3e,
		0xdf, 0xe6, 0xf2, 0x3d, 0x18, 0xe4, 0x2d, 0xbd, 0x9d, 0x11, 0xf4, 0xbd,
		0xec, 0x44, 0xe4, 0xbd, 0x30, 0x05, 0x08, 0xbe, 0xd4, 0x2f, 0x0b, 0xbe,
		0xdc, 0x4e, 0x49, 0xbd, 0x2a, 0x11, 0x9d, 0xbd, 0x23, 0xb5, 0x72, 0xbd,
		0xee, 0xe5, 0x32, 0xbd, 0x73, 0x3c, 0xd6, 0x3d, 0x47, 0xc8, 0xe8, 0xbd,
		0xc5, 0x42, 0x08, 0x3e, 0x35, 0xd7, 0xba, 0xbd, 0xb5, 0x74, 0xa8, 0x3d,
		0x06, 0x08, 0x49, 0xbd, 0x59, 0xe8, 0xd8, 0xbd, 0x19, 0xf6, 0x8a, 0xbd,
		0x3e, 0xbd, 0xd5, 0x3d, 0xb9, 0x2f, 0x29, 0x3e, 0xda, 0xfc, 0x1e, 0xbc,
		0x96, 0xdf, 0xbd, 0x3d, 0xb0, 0xd6, 0x92, 0xbd, 0x55, 0x11, 0xc7, 0xbd,
		0x12, 0xa5, 0xed, 0xbd, 0x6a, 0x44, 0xd5, 0xbb, 0x88, 0xef, 0x2b, 0xbe,
		0x5d, 0x28, 0xed, 0xbd, 0x37, 0xe4, 0x8a, 0xbc, 0x08, 0xb7, 0x93, 0xbd,
		0xa9, 0x08, 0x8a, 0x3d, 0x85, 0x70, 0xf1, 0xbd, 0x1b, 0x3b, 0x6e, 0x3c,
		0x74, 0xb9, 0x92, 0xbd, 0x90, 0xb7, 0xe6, 0xbd, 0xea, 0x63, 0xa8, 0xbd,
		0x30, 0xd5, 0x09, 0xbe, 0x36, 0x33, 0x9c, 0xbd, 0x5e, 0xaf, 0x0e, 0x3e,
		0xfc, 0x83, 0xad, 0x3d, 0xc9, 0x40, 0xa3, 0x3d, 0x4b, 0xb7, 0x13, 0x3e,
		0xee, 0xa9, 0xe7, 0xbd, 0x90, 0xbc, 0x0e, 0x3e, 0xfd, 0x2c, 0xc6, 0xbd,
		0xf6, 0xcb, 0xb6, 0x3d, 0x48, 0xed, 0xd6, 0x3c, 0xe3, 0x27, 0x14, 0x3e,
		0xb8, 0x6c, 0x0a, 0x3d, 0x43, 0x54, 0x03, 0xbe, 0xda, 0xad, 0xa2, 0xbd,
		0xa7, 0xd3, 0x9c, 0x3d, 0x8c, 0x5d, 0xa7, 0x3d, 0x4a, 0x7d, 0x01, 0xbe,
		0x8f, 0x45, 0x2d, 0x3c, 0x6d, 0xcd, 0x0c, 0xbe, 0x7d, 0x5d, 0x0a, 0x3e,
		0x45, 0xb6, 0xf0, 0xbd, 0x4c, 0x52, 0x1f, 0xbd, 0x82, 0x36, 0x01, 0xbe,
		0xb5, 0xb1, 0x33, 0xbc, 0x93, 0x81, 0xc9, 0x3d, 0xa4, 0xde, 0x22, 0xbe,
		0x85, 0xa7, 0x8e, 0xbc, 0x9b, 0x54, 0x38, 0xbe, 0xbe, 0x20, 0x94, 0xbd,
		0x7d, 0x2c, 0x1f, 0xbd, 0x97, 0x3b, 0x81, 0x3d, 0x56, 0xb7, 0x1b, 0xbe,
		0x6d, 0xaa, 0x11, 0x3e, 0x5e, 0xf3, 0x9d, 0xbc, 0xf9, 0x13, 0x77, 0x3d,
		0x20, 0x17, 0x07, 0x3e, 0x09, 0x32, 0x2f, 0x3d, 0x24, 0xad, 0xb7, 0xbd,
		0x3d, 0x7b, 0x2e, 0xbd, 0x3e, 0xbe, 0xef, 0x3d, 0x04, 0x9f, 0xc8, 0x3d,
		0xa9, 0x0f, 0x1c, 0xbc, 0x72, 0xd5, 0xc8, 0x3b, 0x7f, 0x3c, 0x94, 0x3d,
		0xfd, 0x0d, 0xa2, 0x3c, 0xfd, 0x65, 0x21, 0x3e, 0xe9, 0xce, 0x06, 0x3c,
		0x2c, 0xc6, 0xb1, 0x3d, 0xf6, 0x0b, 0xe1, 0x3d, 0x49, 0xdd, 0x7a, 0xbd,
		0x28, 0x52, 0x47, 0x3d, 0x88, 0x0e, 0x2a, 0xbd, 0xc1, 0x92, 0x80, 0xbd,
		0x03, 0xeb, 0xf0, 0x3d, 0x9f, 0xd2, 0xa1, 0x3d, 0xb5, 0x31, 0x69, 0x3d,
		0x70, 0xb7, 0xf2, 0x3d, 0x4c, 0x7e, 0x74, 0xbd, 0xbe, 0x7c, 0xa5, 0x3d,
		0x8f, 0x01, 0x94, 0xbd, 0x79, 0xfd, 0x43, 0x3d, 0x2e, 0x20, 0xb7, 0x3c,
		0x93, 0xc7, 0xe5, 0x3d, 0xc8, 0x79, 0xd3, 0x3d, 0x8c, 0xe6, 0xd6, 0xbc,
		0xe9, 0x6d, 0x1a, 0xbe, 0xc1, 0xc6, 0x56, 0xbd, 0xd7, 0x60, 0xd0, 0xbc,
		0x10, 0xeb, 0xef, 0xbd, 0x69, 0xb7, 0x46, 0xbe, 0x98, 0x0f, 0xe9, 0xbd,
		0x71, 0x21, 0x0f, 0xbd, 0x3c, 0xb6, 0xb1, 0xbc, 0x34, 0x1c, 0xa8, 0xbd,
		0x30, 0x40, 0xbc, 0xbd, 0x54, 0x2b, 0xab, 0xbd, 0xf6, 0x42, 0x9e, 0xbd,
		0x62, 0x66, 0x31, 0x3c, 0x7f, 0x0d, 0x3d, 0x3d, 0xf7, 0xee, 0xb0, 0xbc,
		0xfd, 0xcd, 0x96, 0x3c, 0xb8, 0xa5, 0xd9, 0x3c, 0xfb, 0x28, 0x31, 0x3d,
		0xae, 0xf0, 0xc6, 0x3d, 0x3e, 0x77, 0x96, 0x3c, 0x22, 0x35, 0xfa, 0xbd,
		0x45, 0xad, 0x31, 0xbe, 0xf7, 0x73, 0xcd, 0xbd, 0xd8, 0x31, 0x40, 0xbd,
		0x9f, 0x76, 0xfa, 0xbd, 0x3f, 0x0a, 0x7b, 0xbd, 0x5e, 0x0a, 0xbc, 0xba,
		0x00, 0x3f, 0x96, 0x3d, 0xef, 0x9c, 0xad, 0x3d, 0x60, 0x36, 0x47, 0xbd,
		0x24, 0x94, 0xd5, 0x3d, 0xfd, 0xb1, 0x79, 0xbd, 0x89, 0x5b, 0xd8, 0xbd,
		0xf0, 0x44, 0x2a, 0x3d, 0x9d, 0xc1, 0x16, 0xbe, 0xbe, 0x8d, 0x52, 0x3d,
		0x46, 0x40, 0x3d, 0xbc, 0x46, 0x1a, 0x3c, 0x3b, 0xd4, 0x7f, 0xb4, 0x3c,
		0xbd, 0x35, 0x74, 0x3d, 0x30, 0x2c, 0xcd, 0x3d, 0xdc, 0xe7, 0x33, 0x3d,
		0xa7, 0x94, 0x8c, 0x3d, 0x5a, 0x58, 0xd3, 0xbd, 0xfd, 0xcf, 0x8d, 0xbd,
		0x56, 0xeb, 0x3e, 0xbd, 0xf5, 0xee, 0x73, 0x3d, 0x11, 0xcd, 0xac, 0xbc,
		0xc4, 0xd6, 0x14, 0x3e, 0xef, 0x53, 0x5d, 0x3d, 0x12, 0x86, 0x86, 0x3d,
		0xe8, 0xf0, 0xed, 0xbd, 0x92, 0xfd, 0x96, 0x3c, 0xbb, 0xf0, 0xce, 0xbd,
		0xa8, 0x4e, 0x18, 0xbe, 0xec, 0xc3, 0x0a, 0xbe, 0x8b, 0x2e, 0x93, 0x3d,
		0xa4, 0xf5, 0xaa, 0xbc, 0x35, 0xb4, 0x3a, 0xbc, 0x79, 0x21, 0x7b, 0x3d,
		0x8e, 0x3a, 0xbf, 0x3d, 0xcb, 0x9d, 0x94, 0x3d, 0xb0, 0x62, 0x8d, 0x3d,
		0x9f, 0x1d, 0x29, 0xbe, 0xc7, 0x2c, 0xc6, 0x3d, 0xb9, 0xaf, 0xb9, 0x3c,
		0x7e, 0x43, 0x07, 0xbd, 0x4d, 0x15, 0xee, 0xbd, 0x88, 0xff, 0x2a, 0xbe,
		0x3f, 0xae, 0xbd, 0x3d, 0xc6, 0xbb, 0xc8, 0x3d, 0x96, 0xe0, 0x0f, 0x3e,
		0xcc, 0x43, 0xb2, 0xbc, 0xfb, 0x08, 0x83, 0x3d, 0x03, 0xe7, 0xbd, 0x3c,
		0xd6, 0x75, 0x6d, 0xbc, 0xb8, 0x8f, 0xfa, 0xbd, 0x04, 0x82, 0x75, 0x3d,
		0x7a, 0x3d, 0x7b, 0x3b, 0x29, 0x84, 0xa0, 0x3c, 0x24, 0xb3, 0x12, 0x3e,
		0xfa, 0x3e, 0x12, 0xbe, 0xa6, 0x46, 0xe2, 0xbd, 0xdf, 0xad, 0xbf, 0xbd,
		0xcd, 0xf2, 0xf8, 0xbd, 0x20, 0x50, 0x60, 0x3c, 0xae, 0xe3, 0xc8, 0x3d,
		0xd2, 0x25, 0xac, 0x3d, 0x7b, 0x19, 0x44, 0x3c, 0x7e, 0xeb, 0xc7, 0xbd,
		0x29, 0x97, 0x00, 0x3d, 0xaa, 0xdd, 0xee, 0xbd, 0x5a, 0xe2, 0x23, 0xbd,
		0xe6, 0x02, 0x29, 0xbd, 0x4d, 0x6c, 0x33, 0xbe, 0x01, 0x0f, 0x09, 0x3e,
		0xde, 0xc9, 0x58, 0xbd, 0xb0, 0x54, 0x1f, 0x3d, 0x9e, 0x46, 0x01, 0x3e,
		0x0f, 0xd6, 0x27, 0x3e, 0x5c, 0x5a, 0xce, 0xbd, 0xc2, 0x80, 0xab, 0xbd,
		0x4e, 0x5c, 0x1a, 0x3e, 0xcc, 0xda, 0xa6, 0x3c, 0x12, 0xd4, 0xc7, 0x3d,
		0x83, 0xda, 0x94, 0xbd, 0xc7, 0x81, 0x8c, 0x3d, 0xbd, 0xfc, 0x6c, 0xbc,
		0xe2, 0xbb, 0x22, 0xbe, 0x47, 0x2c, 0xcf, 0xbb, 0x34, 0x45, 0xbf, 0x3b,
		0x3f, 0xfb, 0x6d, 0xbd, 0x9c, 0x95, 0x86, 0xbc, 0x1a, 0x7f, 0x69, 0xbd,
		0x72, 0x74, 0x26, 0xbd, 0xcf, 0x8f, 0x87, 0x3d, 0xbd, 0xc0, 0x12, 0xbe,
		0xd6, 0x75, 0xfb, 0x3d, 0x6c, 0x2c, 0x99, 0x3d, 0x5a, 0xf9, 0x27, 0xbe,
		0xcc, 0xd9, 0x36, 0xbd, 0x94, 0xdf, 0x93, 0xbd, 0x75, 0xb6, 0xa1, 0x3d,
		0x7f, 0x84, 0xd6, 0x3d, 0xbd, 0x69, 0x90, 0x3d, 0x06, 0xee, 0x0c, 0xbe,
		0xce, 0x22, 0x15, 0xbe, 0x9a, 0x04, 0x10, 0x3e, 0x4c, 0xc6, 0x9f, 0x3c,
		0xf8, 0x92, 0x00, 0xbe, 0x09, 0x6f, 0x40, 0xbd, 0x45, 0xba, 0x18, 0x3e,
		0x0a, 0x9b, 0x1b, 0xbe, 0xac, 0xa2, 0xd6, 0xbd, 0x0d, 0xeb, 0x27, 0xbe,
		0x2b, 0x91, 0x65, 0x3d, 0x01, 0x77, 0x8c, 0x3d, 0x60, 0x80, 0x62, 0x3c,
		0x93, 0x12, 0x1e, 0xbe, 0xba, 0x5b, 0xc3, 0x3d, 0x48, 0xcf, 0x19, 0xbe,
		0x46, 0x61, 0xbb, 0x3d, 0xbb, 0xe4, 0x02, 0x3e, 0x31, 0xb3, 0x81, 0x3d,
		0x7c, 0xa0, 0x0c, 0xbd, 0x23, 0xbf, 0x74, 0xbd, 0x5c, 0x2f, 0x90, 0xbd,
		0x8a, 0xc9, 0x58, 0xbe, 0x87, 0x70, 0x27, 0xbd, 0x61, 0x0c, 0x8e, 0xbd,
		0xb9, 0xb8, 0xcb, 0x3c, 0x4b, 0xd2, 0xe7, 0x3d, 0x6d, 0xe4, 0xa4, 0x3d,
		0xb3, 0xb0, 0x68, 0xbd, 0xe4, 0xd0, 0x86, 0xbd, 0xdd, 0x2a, 0xf2, 0xbd,
		0x30, 0xe3, 0x28, 0xbc, 0x30, 0x68, 0xf2, 0x3b, 0x8d, 0xed, 0xac, 0xbd,
		0x91, 0xe0, 0x97, 0x3d, 0xaf, 0xbb, 0x41, 0xbd, 0x34, 0xa2, 0xf6, 0x3b,
		0x7e, 0x06, 0x11, 0xbe, 0x5f, 0x1e, 0xec, 0xbb, 0x57, 0x2f, 0x0e, 0xbe,
		0xdc, 0x14, 0x44, 0x3d, 0x92, 0x6e, 0x84, 0x3d, 0xca, 0x9c, 0x52, 0x3d,
		0x3c, 0xe5, 0x19, 0xbe, 0x1e, 0x89, 0x63, 0xbd, 0x7d, 0x31, 0x10, 0xbe,
		0x6b, 0x81, 0xac, 0xbd, 0x45, 0x7f, 0xf9, 0xbd, 0x8c, 0x8c, 0xce, 0x3d,
		0x9b, 0xf0, 0x25, 0xbe, 0xbd, 0x48, 0xcd, 0xbd, 0x25, 0xc6, 0x21, 0xbe,
		0xd5, 0x67, 0xbd, 0xbd, 0x33, 0xa6, 0xbc, 0x3d, 0xec, 0x5e, 0xd0, 0xbd,
		0x87, 0x14, 0x29, 0x3a, 0x34, 0x77, 0xd3, 0xbd, 0xca, 0xf9, 0x7c, 0xbd,
		0x8b, 0x07, 0x82, 0xbd, 0x40, 0xce, 0x95, 0xbc, 0x62, 0xc2, 0xc0, 0xbc,
		0x10, 0x4e, 0xa7, 0x3d, 0x60, 0x70, 0xf9, 0xbd, 0xd0, 0x75, 0xba, 0x3d,
		0x88, 0xbe, 0x02, 0x3d, 0xbb, 0x6b, 0xab, 0xbd, 0x60, 0x00, 0xac, 0xbc,
		0x11, 0x0b, 0x1d, 0xbe, 0x21, 0x92, 0xf5, 0x3d, 0x90, 0xb5, 0x0d, 0x3d,
		0x28, 0x5d, 0x73, 0x3c, 0xef, 0x4a, 0xdc, 0x3d, 0xbc, 0xe1, 0x38, 0x3d,
		0xa9, 0x1c, 0xa7, 0x3d, 0x94, 0xd0, 0xd5, 0x3d, 0x7e, 0xed, 0xd6, 0x3d,
		0x0d, 0xd6, 0x9a, 0x3d, 0x6d, 0x9e, 0x06, 0xbe, 0x6a, 0x9b, 0x1b, 0xbe,
		0x54, 0x89, 0xe5, 0xbb, 0xab, 0x05, 0x9e, 0x3d, 0xc7, 0x9e, 0xb3, 0xbd,
		0xee, 0x7d, 0xc2, 0xbc, 0xd0, 0x4f, 0xef, 0xbd, 0x89, 0x30, 0x14, 0x3c,
		0x58, 0x12, 0x6b, 0xbd, 0x8d, 0x25, 0xd6, 0xbd, 0x34, 0xf6, 0x8a, 0x3d,
		0xca, 0xa0, 0xac, 0x3d, 0xcc, 0x12, 0x04, 0x3d, 0xdd, 0x16, 0x10, 0xbd,
		0x18, 0x6a, 0x1e, 0x3c, 0x5c, 0x45, 0xb2, 0x3b, 0x0b, 0x92, 0x0c, 0xbe,
		0x92, 0x27, 0x95, 0xbd, 0x9e, 0x42, 0xe5, 0xbc, 0x17, 0x6c, 0x14, 0xbe,
		0x57, 0x1c, 0xb6, 0xbd, 0x64, 0x5d, 0x6e, 0xbd, 0x70, 0x1c, 0x02, 0xbe,
		0xc3, 0x56, 0x55, 0xbc, 0xee, 0xb0, 0xb7, 0x3d, 0x80, 0x5b, 0xd9, 0xbd,
		0xfe, 0x0d, 0xdc, 0x3d, 0x8b, 0x18, 0x2a, 0xbe, 0xa6, 0x1d, 0x36, 0xbd,
		0xc1, 0xb4, 0x2f, 0x3d, 0x20, 0x2e, 0xdc, 0xbd, 0xda, 0x1b, 0x24, 0xbe,
		0x36, 0x0a, 0x66, 0x3d, 0x98, 0xae, 0x19, 0x3d, 0x0b, 0x3f, 0xf8, 0xbd,
		0xdd, 0x71, 0xb4, 0xbd, 0xdc, 0xc4, 0xa1, 0x3d, 0x18, 0x64, 0x03, 0xbe,
		0x97, 0x00, 0xa5, 0x3d, 0xa0, 0xf7, 0xe6, 0xbd, 0xe8, 0x68, 0x86, 0x3c,
		0xd3, 0x1d, 0xa6, 0xbc, 0x84, 0x98, 0x6d, 0x3b, 0x54, 0x8e, 0xd7, 0x3d,
		0x4c, 0xd8, 0xba, 0x3d, 0xc0, 0xe9, 0xe2, 0x3d, 0x2a, 0x78, 0xf6, 0x3a,
		0x62, 0x34, 0xbc, 0xbd, 0x44, 0x36, 0xee, 0xbb, 0xd2, 0x5e, 0xd8, 0x3c,
		0xe6, 0x49, 0xe8, 0xbb, 0x18, 0x39, 0xec, 0x3d, 0xc4, 0xc3, 0x02, 0xbe,
		0xe6, 0x21, 0x92, 0xbd, 0x0e, 0x5e, 0xd4, 0x3d, 0x24, 0x65, 0xe1, 0xbd,
		0xb2, 0x15, 0x96, 0x3d, 0x27, 0x40, 0x3d, 0xbe, 0x1d, 0x57, 0x0d, 0xbe,
		0xa1, 0x85, 0xf7, 0xbd, 0x6a, 0x08, 0xf9, 0xbd, 0xab, 0xba, 0x11, 0xbe,
		0x50, 0x87, 0x00, 0xbe, 0x7c, 0x9f, 0xa1, 0x3d, 0xd3, 0xfa, 0x33, 0xbd,
		0xae, 0x26, 0x3d, 0xbe, 0xec, 0xe9, 0xeb, 0x3c, 0x47, 0x7f, 0xed, 0xbc,
		0x43, 0x1b, 0xcf, 0x3c, 0x1b, 0x51, 0xeb, 0xb9, 0xf6, 0x39, 0x04, 0xbe,
		0x63, 0x82, 0xc6, 0xbd, 0xce, 0x16, 0x9d, 0x3d, 0xcb, 0x37, 0x10, 0xbe,
		0x0d, 0xe2, 0x02, 0xbe, 0xab, 0xb4, 0x8a, 0xbd, 0x40, 0x34, 0x4c, 0xbd,
		0x61, 0xfa, 0x39, 0xbc, 0x4d, 0xa3, 0xfa, 0xbc, 0xe2, 0x60, 0x9d, 0x3c,
		0xb7, 0xb7, 0x09, 0x3d, 0xce, 0x84, 0x1b, 0xbe, 0xa0, 0x82, 0x26, 0x3e,
		0xe5, 0x4c, 0x50, 0xbd, 0xda, 0x5f, 0x39, 0xbb, 0xc4, 0xa4, 0xed, 0xbc,
		0xff, 0xe4, 0xde, 0x3d, 0xbc, 0x15, 0x25, 0xbe, 0xc9, 0xd9, 0x96, 0x3d,
		0x1b, 0x47, 0xfd, 0xbc, 0x8b, 0x4e, 0x2a, 0x3e, 0xf6, 0xc7, 0xbf, 0x3d,
		0x80, 0x2f, 0xdf, 0x3d, 0x04, 0x1c, 0xa8, 0x3d, 0x97, 0x0a, 0x86, 0x3c,
		0x32, 0x5b, 0x7d, 0xbd, 0x40, 0xc5, 0x8e, 0xbc, 0x8e, 0xb3, 0x78, 0xbd,
		0x41, 0xcd, 0x33, 0x3e, 0x1a, 0x0c, 0x6d, 0x3d, 0x16, 0x17, 0x01, 0xbe,
		0xae, 0xad, 0x39, 0x3c, 0x22, 0x6a, 0xa0, 0xbd, 0xe7, 0x3b, 0xf9, 0xbb,
		0xb1, 0x96, 0xa6, 0x3d, 0x90, 0xe2, 0xa8, 0xbc, 0x34, 0xbe, 0x8a, 0xbd,
		0x23, 0xde, 0xec, 0xbc, 0xa5, 0xf4, 0x29, 0xbc, 0x1e, 0x48, 0x0d, 0xbd,
		0x70, 0x01, 0x9c, 0x3d, 0xbd, 0xa9, 0xa9, 0x3a, 0xb7, 0x14, 0x09, 0xbd,
		0x74, 0x6a, 0xc4, 0xbd, 0x11, 0xb3, 0x98, 0xbd, 0x1b, 0x4e, 0x96, 0xbb,
		0x47, 0xf2, 0xf3, 0xbd, 0xae, 0xd5, 0x09, 0x3e, 0x69, 0x75, 0x2f, 0x3d,
		0xfa, 0xaf, 0x81, 0xbd, 0x42, 0x44, 0xcd, 0x3d, 0x85, 0x62, 0xf8, 0x3c,
		0x1e, 0xa4, 0x43, 0x3e, 0x45, 0x4e, 0x39, 0x3d, 0x5c, 0xda, 0x0b, 0xbe,
		0xab, 0xec, 0x6f, 0x3d, 0x32, 0x25, 0x0f, 0xbc, 0xda, 0x5d, 0x4e, 0x3b,
		0xdd, 0x50, 0xe1, 0xbc, 0x1d, 0x4a, 0xb0, 0x3c, 0x87, 0xba, 0x26, 0xbe,
		0xcd, 0xfb, 0x89, 0x3d, 0xed, 0x0b, 0xe8, 0xbd, 0x43, 0x7d, 0xce, 0xbd,
		0x61, 0x58, 0x9b, 0xbc, 0x50, 0xb1, 0x14, 0x3e, 0x20, 0x32, 0xbf, 0x3c,
		0x9c, 0x42, 0x6b, 0xbd, 0xd2, 0x49, 0x82, 0xbd, 0x83, 0x11, 0x9e, 0xbd,
		0xc9, 0x42, 0x0c, 0xbe, 0xff, 0xeb, 0x38, 0x3e, 0x51, 0xa5, 0xd0, 0x3d,
		0x3e, 0x95, 0xf6, 0x3d, 0x70, 0x8a, 0xc6, 0x3d, 0x2f, 0x0e, 0xa7, 0xbd,
		0xa8, 0xa0, 0xd7, 0x3d, 0xcb, 0x9b, 0x86, 0x3d, 0xd3, 0x96, 0x8f, 0xbd,
		0x56, 0x3e, 0x8b, 0x3d, 0x8f, 0x3e, 0xdd, 0xbc, 0x3e, 0xfe, 0xf3, 0xbd,
		0xbc, 0x72, 0xfc, 0xbd, 0x83, 0x32, 0x52, 0xbd, 0x39, 0x10, 0x88, 0x3d,
		0xae, 0x79, 0xfd, 0xbd, 0xc1, 0x6d, 0x74, 0x3d, 0xbd, 0x06, 0xb8, 0xbd,
		0xa3, 0xfe, 0x01, 0xbd, 0xdc, 0xe8, 0x94, 0x3c, 0x62, 0x0e, 0x61, 0x3d,
		0xb6, 0x61, 0x28, 0x3d, 0x83, 0x51, 0x83, 0x3d, 0xa2, 0x1e, 0xf3, 0xbd,
		0x2c, 0xe5, 0x9e, 0x3d, 0x7f, 0x13, 0xc2, 0x3d, 0xe1, 0xcc, 0x2b, 0x3d,
		0xbd, 0xc6, 0xea, 0x3d, 0x0f, 0x8c, 0x02, 0x3d, 0x5e, 0x5a, 0x2a, 0xbe,
		0xc4, 0x77, 0x02, 0x3e, 0xea, 0x2e, 0x84, 0x3c, 0xf1, 0xaa, 0x3a, 0x3c,
		0x62, 0x49, 0x25, 0x3d, 0x0a, 0xc7, 0xd1, 0xbc, 0xd0, 0xa1, 0x49, 0xbe,
		0x96, 0xfb, 0x18, 0xbe, 0x9e, 0x64, 0x06, 0x3e, 0x27, 0x2c, 0x79, 0xbd,
		0x88, 0x0a, 0xfb, 0xbd, 0xe6, 0xa2, 0xf9, 0x3a, 0x1e, 0x2c, 0xcd, 0x3c,
		0x2f, 0x94, 0xbc, 0xbc, 0x5c, 0x92, 0xf9, 0x39, 0x81, 0x43, 0x21, 0x3e,
		0xec, 0x5d, 0x5d, 0x3c, 0xac, 0x72, 0x82, 0x3b, 0x0c, 0x37, 0xcf, 0xbd,
		0x8f, 0x5e, 0x0d, 0x3e, 0x68, 0x60, 0xa0, 0xbd, 0x5b, 0x21, 0x0d, 0xbe,
		0xea, 0x9e, 0x6d, 0x3c, 0x8c, 0xfb, 0x56, 0xbd, 0xbb, 0x8a, 0xec, 0xbc,
		0x15, 0xdc, 0x64, 0xbd, 0x88, 0x4c, 0xf5, 0xbb, 0x40, 0x1d, 0xf9, 0x3d,
		0x2b, 0xc5, 0x1b, 0xbe, 0x5b, 0x0b, 0xb8, 0xbd, 0x10, 0x77, 0x19, 0x3b,
		0x3f, 0x52, 0x11, 0x3d, 0x52, 0xa5, 0xc7, 0xbd, 0x8c, 0xd7, 0x0a, 0x3c,
		0xdd, 0x5d, 0x6f, 0x3d, 0xbc, 0x96, 0x7f, 0x3c, 0x36, 0xfa, 0x21, 0x3b,
		0xb2, 0x16, 0xd4, 0xbb, 0x98, 0x2f, 0x1d, 0xbe, 0x3f, 0x07, 0x85, 0xbd,
		0x1b, 0xb4, 0xfe, 0xbd, 0x1d, 0x8b, 0xb7, 0xbd, 0x79, 0x68, 0x87, 0xbd,
		0xb7, 0x83, 0x0b, 0xbe, 0xf0, 0xad, 0x2b, 0xbe, 0x6f, 0x68, 0xf7, 0x3d,
		0x69, 0x44, 0x53, 0xbd, 0x40, 0xe9, 0x08, 0xbc, 0x4c, 0x39, 0x11, 0xbe,
		0x95, 0xd7, 0x99, 0x3d, 0xdc, 0x6d, 0x38, 0xbd, 0x03, 0xf2, 0x89, 0xbc,
		0x68, 0x49, 0x98, 0xbd, 0x08, 0xd6, 0x98, 0x3c, 0xd8, 0x25, 0x4d, 0xbd,
		0x32, 0x1b, 0x05, 0x3e, 0x6f, 0xf3, 0x53, 0x3d, 0x11, 0x2c, 0x0b, 0x3d,
		0x71, 0xdf, 0x62, 0x3d, 0x5a, 0xe1, 0x5d, 0xbe, 0x16, 0x60, 0xf5, 0xbd,
		0x91, 0xd6, 0x9f, 0x3d, 0xb0, 0x9b, 0xce, 0x3d, 0x3a, 0x1e, 0xe7, 0x3d,
		0x24, 0x07, 0x26, 0xbe, 0x10, 0xce, 0x3e, 0xbe, 0x83, 0x8b, 0x02, 0xbe,
		0xa4, 0xe3, 0x10, 0x3a, 0x23, 0x16, 0x13, 0xbb, 0x65, 0x41, 0xb7, 0x3d,
		0x84, 0x31, 0x12, 0xbb, 0xe3, 0xc0, 0x32, 0xbe, 0xf7, 0x03, 0x13, 0xbe,
		0x26, 0x96, 0xb6, 0xbd, 0xb9, 0x92, 0x13, 0xbe, 0x2d, 0x6d, 0x14, 0xbd,
		0x97, 0x16, 0xb1, 0x3d, 0x6a, 0xb3, 0x2d, 0xbd, 0x50, 0x8f, 0x0b, 0x3d,
		0xd5, 0x1a, 0x78, 0xbd, 0xe1, 0x67, 0x8e, 0x3d, 0x0f, 0xe2, 0x1c, 0xbe,
		0xb1, 0x18, 0xf9, 0x3d, 0x17, 0x38, 0x35, 0xbe, 0x8c, 0x4d, 0x04, 0x3d,
		0x63, 0x86, 0xaa, 0xbc, 0x24, 0x80, 0x30, 0xbe, 0x65, 0x81, 0x76, 0x3d,
		0x7e, 0x70, 0xdd, 0x3d, 0x38, 0xb4, 0xfc, 0xbd, 0x65, 0x96, 0xa8, 0x3d,
		0xfc, 0xa0, 0xfa, 0xbd, 0xff, 0xeb, 0x58, 0xbd, 0xee, 0x15, 0xc5, 0x3d,
		0xa0, 0x71, 0x81, 0x3c, 0x67, 0xaf, 0x1c, 0x3e, 0xc5, 0x88, 0x1a, 0xbe,
		0xb9, 0x44, 0x9c, 0xbd, 0x2a, 0xaa, 0xe2, 0xbb, 0x5a, 0xaf, 0xa3, 0xbd,
		0x10, 0x91, 0x8d, 0xbd, 0xaf, 0x9b, 0x0c, 0xbe, 0x66, 0xc6, 0x8d, 0xbd,
		0xac, 0x67, 0x04, 0xbe, 0x94, 0x91, 0xb3, 0xbd, 0x7a, 0x98, 0x23, 0x3d,
		0x6d, 0x97, 0xb4, 0xbd, 0xea, 0x81, 0x3a, 0xbe, 0x17, 0xaf, 0xee, 0xbd,
		0x1b, 0x2a, 0x58, 0x3d, 0xfa, 0x23, 0x55, 0xbc, 0xa0, 0x72, 0x90, 0x3d,
		0x4e, 0x87, 0xc7, 0x3d, 0xa2, 0xf6, 0x69, 0xbd, 0xa3, 0xf2, 0xfc, 0xbd,
		0xc9, 0xc2, 0xbb, 0x3d, 0x98, 0xe9, 0x28, 0xbd, 0x22, 0xb9, 0x06, 0xbe,
		0xe2, 0xda, 0x72, 0xbd, 0x7a, 0x76, 0xd9, 0x3c, 0x96, 0x15, 0xd9, 0x3b,
		0x1e, 0x57, 0x6b, 0x3c, 0x2d, 0x33, 0xb5, 0x3d, 0xbc, 0x8f, 0x29, 0xbe,
		0x85, 0x95, 0xdd, 0xbd, 0xa4, 0xaa, 0x18, 0xbe, 0x50, 0x58, 0xda, 0x3d,
		0x18, 0x58, 0xc3, 0x3c, 0xbb, 0x55, 0x30, 0xbe, 0x83, 0xf7, 0x35, 0xbe,
		0x99, 0x55, 0xde, 0x3d, 0xbc, 0xda, 0x90, 0x3d, 0x61, 0x27, 0x20, 0x3e,
		0x20, 0x1e, 0x10, 0xbe, 0xcc, 0x5c, 0x63, 0xbd, 0xd8, 0x8c, 0xb4, 0x3d,
		0x8e, 0x41, 0xb6, 0x3d, 0xfc, 0x83, 0xec, 0x3d, 0x30, 0x37, 0x60, 0xbd,
		0x15, 0xf5, 0xd9, 0x3d, 0x24, 0xd6, 0xdd, 0xbd, 0xd0, 0x11, 0xc3, 0xbc,
		0x6b, 0x94, 0xf4, 0x3d, 0x96, 0x4d, 0xbf, 0x3d, 0x04, 0xcb, 0x95, 0xbd,
		0x7e, 0x4f, 0x05, 0xbe, 0x60, 0xce, 0x2b, 0xbe, 0x9d, 0x4d, 0xe9, 0xbd,
		0xb2, 0xb9, 0x00, 0x3c, 0xa3, 0x73, 0x87, 0x3d, 0x3b, 0x78, 0x18, 0xba,
		0x83, 0x94, 0x39, 0xbe, 0xe9, 0x70, 0xa8, 0x3c, 0xb8, 0x12, 0x0e, 0x3d,
		0xa2, 0xde, 0x89, 0xbd, 0xf2, 0x10, 0xa3, 0xbc, 0xb3, 0xe8, 0x99, 0xbd,
		0xf7, 0x3d, 0x3c, 0x3d, 0x45, 0x3c, 0xe2, 0x3d, 0x93, 0xfa, 0xe1, 0x3b,
		0xda, 0xc6, 0x8d, 0xbd, 0x51, 0x20, 0x0d, 0xbd, 0x65, 0xe5, 0x34, 0xbe,
		0x52, 0x11, 0x7a, 0x3b, 0xa9, 0xcd, 0x13, 0xbd, 0xa7, 0x73, 0x9f, 0x3d,
		0xe1, 0xc5, 0x97, 0xbd, 0x25, 0xc6, 0x70, 0xbd, 0x41, 0x23, 0x3e, 0xbc,
		0x38, 0x07, 0x98, 0x3d, 0x21, 0x46, 0xe3, 0xbd, 0xce, 0x44, 0xa8, 0x3d,
		0xa8, 0x35, 0xf9, 0x3c, 0xea, 0xe8, 0x0d, 0x3c, 0x33, 0x51, 0xc3, 0xbd,
		0xe6, 0x20, 0xf7, 0xbd, 0x6a, 0xed, 0xfb, 0xbc, 0xe7, 0x0f, 0xea, 0x3c,
		0xa7, 0x64, 0xcb, 0x3d, 0xcf, 0x93, 0x0a, 0x3e, 0xc7, 0x26, 0x3c, 0xbd,
		0xfb, 0x42, 0xa6, 0x3d, 0x77, 0x51, 0x1b, 0xbe, 0x0e, 0x72, 0x2a, 0xbe,
		0xe3, 0xb1, 0x20, 0x3d, 0x9d, 0x0d, 0x02, 0x3e, 0xd2, 0x8c, 0x0f, 0xbe,
		0x2f, 0xde, 0xa4, 0xbb, 0x6a, 0x47, 0x98, 0x3d, 0x64, 0xcf, 0x1e, 0x3d,
		0x55, 0xd6, 0x92, 0xbd, 0x68, 0x2d, 0xee, 0xbd, 0x85, 0x0b, 0x3a, 0xbd,
		0x95, 0xc8, 0x73, 0x3d, 0xdc, 0x37, 0xbd, 0x3d, 0x25, 0x4e, 0xce, 0xbd,
		0xa7, 0x59, 0x25, 0xbe, 0x76, 0x33, 0xe0, 0xbc, 0xb6, 0xf4, 0x7e, 0x3d,
		0xf8, 0x4d, 0xd7, 0x3d, 0xda, 0xb3, 0x19, 0x3d, 0x14, 0xc3, 0x18, 0xbe,
		0x71, 0xeb, 0x10, 0x3d, 0x7e, 0x98, 0xc6, 0x3d, 0x3f, 0x31, 0xa1, 0xbd,
		0xb1, 0x6e, 0xbb, 0xbc, 0x6c, 0x9f, 0x3c, 0xbd, 0x39, 0xed, 0xc0, 0xbd,
		0x37, 0xff, 0x1f, 0x3b, 0x34, 0x7f, 0x99, 0xbc, 0xd1, 0xc0, 0xf1, 0x3a,
		0xc8, 0x84, 0x39, 0x3d, 0x59, 0x9a, 0x04, 0xbe, 0xab, 0xb2, 0x18, 0xbc,
		0x0a, 0x31, 0x3a, 0xbe, 0x62, 0xe8, 0xd2, 0xbd, 0x1c, 0x5a, 0xb5, 0x3d,
		0xf3, 0xb1, 0x40, 0x3d, 0x03, 0xa3, 0x76, 0x3d, 0x0a, 0xdd, 0xe2, 0x3c,
		0x47, 0x6b, 0x27, 0xbe, 0x44, 0x97, 0x15, 0x3e, 0xf6, 0x64, 0x79, 0xbd,
		0x64, 0x34, 0xae, 0xbd, 0xda, 0xe2, 0x96, 0xbd, 0xa9, 0x2c, 0x68, 0xbe,
		0x74, 0x1a, 0x13, 0xbe, 0xb7, 0xbe, 0x19, 0x3b, 0x9f, 0xdf, 0x0d, 0xbb,
		0x5f, 0xd6, 0x96, 0xbc, 0x06, 0xd2, 0x65, 0x3b, 0x23, 0xa8, 0x77, 0x3d,
		0xb9, 0xd8, 0x8b, 0xbd, 0xbc, 0xb6, 0x32, 0xbe, 0x51, 0xd8, 0xba, 0x3d,
		0xbd, 0x52, 0x1a, 0xbe, 0xf9, 0xa5, 0xb9, 0xbd, 0xd7, 0xe1, 0x1e, 0xbe,
		0x5c, 0xc6, 0x1f, 0xbe, 0x36, 0x3c, 0xe9, 0xbd, 0x66, 0x04, 0xc7, 0xbc,
		0x7e, 0x3a, 0x88, 0x3a, 0x6d, 0xd2, 0xaf, 0x3d, 0xf0, 0x14, 0x69, 0xba,
		0x43, 0xe1, 0x7e, 0xbc, 0x59, 0xb6, 0x24, 0xbe, 0x7e, 0x80, 0xc3, 0xbc,
		0x70, 0xe7, 0x7d, 0xbd, 0x0d, 0xd1, 0x3c, 0xbe, 0xa1, 0x31, 0xa1, 0x3d,
		0x3c, 0xc0, 0x2a, 0xbe, 0xd8, 0x0e, 0xa9, 0x3d, 0x5b, 0x6d, 0x16, 0xbd,
		0x69, 0x15, 0x2d, 0xbe, 0x52, 0x62, 0x13, 0xbe, 0x06, 0xf1, 0x16, 0x3e,
		0xf1, 0x84, 0xed, 0xbd, 0xb9, 0x9e, 0x99, 0xbd, 0xcc, 0x70, 0xdf, 0xbd,
		0x16, 0x18, 0x3f, 0x3d, 0x44, 0x2d, 0x5c, 0xbd, 0xac, 0x16, 0xb6, 0xbd,
		0xb1, 0x41, 0xcf, 0x3d, 0xec, 0xa9, 0x5d, 0x3d, 0xdb, 0x58, 0xa3, 0x3d,
		0x50, 0xbd, 0x9e, 0xbd, 0xd7, 0x6f, 0xfe, 0xbd, 0x1e, 0x64, 0x82, 0xbc,
		0x90, 0x99, 0xd0, 0x3d, 0xc0, 0xc7, 0x66, 0xbd, 0xe1, 0xd8, 0x81, 0x3d,
		0xec, 0x5c, 0xd6, 0xbd, 0x61, 0xf8, 0x44, 0xbe, 0x3b, 0x9e, 0x26, 0xbd,
		0x87, 0xd4, 0x7b, 0x3d, 0xf3, 0xb2, 0x88, 0xbd, 0x5f, 0x51, 0x16, 0x3e,
		0xb4, 0xc5, 0x38, 0xbe, 0x22, 0xab, 0x40, 0xbe, 0x8b, 0x35, 0x82, 0x3b,
		0x74, 0xb8, 0x4f, 0x3d, 0xca, 0x1a, 0x07, 0xbb, 0xbf, 0xfc, 0x41, 0x3d,
		0x4e, 0x3f, 0x03, 0xbe, 0x1a, 0x31, 0x0f, 0xbe, 0x99, 0xff, 0xd9, 0x3d,
		0x8c, 0x57, 0xfa, 0xbd, 0x31, 0x17, 0xd3, 0x3d, 0x46, 0xcb, 0x1e, 0x3e,
		0x1e, 0x41, 0x59, 0xbe, 0x26, 0xe6, 0xb6, 0x3d, 0x36, 0x3c, 0xc2, 0xbb,
		0x8e, 0x2c, 0x18, 0xbe, 0xf8, 0x35, 0x87, 0xbc, 0xcf, 0x1e, 0x48, 0x3d,
		0xd6, 0x97, 0x80, 0x3d, 0x20, 0x23, 0xc9, 0xbd, 0xd9, 0x79, 0xf7, 0xbd,
		0x2f, 0x18, 0x1d, 0xbe, 0xec, 0x1f, 0x11, 0x3a, 0xce, 0x5e, 0x92, 0x3c,
		0x31, 0x5a, 0x2e, 0xbe, 0xde, 0xcf, 0xed, 0x3d, 0x52, 0x51, 0x22, 0x3d,
		0x39, 0xab, 0x62, 0xbe, 0x55, 0x65, 0x91, 0xbd, 0x72, 0x9a, 0x23, 0xbe,
		0xa2, 0xee, 0xdc, 0x3d, 0x8d, 0x45, 0x26, 0xbe, 0xe9, 0x57, 0xcb, 0xbc,
		0xb8, 0x1e, 0xa8, 0xbd, 0x2b, 0xee, 0xe0, 0xbd, 0xdc, 0x3c, 0x43, 0x3d,
		0xbc, 0xbd, 0x19, 0xbe, 0x98, 0x6c, 0xbb, 0xbd, 0x93, 0x39, 0x33, 0xbd,
		0x2e, 0x86, 0x11, 0xbe, 0x73, 0x94, 0xf7, 0x3d, 0xc1, 0x32, 0x0a, 0xbd,
		0x29, 0x10, 0x04, 0x3e, 0x12, 0xc9, 0xfd, 0xbc, 0x12, 0xa3, 0x48, 0xbe,
		0xc3, 0xfe, 0x09, 0xbe, 0x84, 0x5e, 0x96, 0xbd, 0xca, 0xbb, 0x27, 0x3d,
		0x41, 0xd3, 0x12, 0xbd, 0x85, 0x96, 0xca, 0x3d, 0x8e, 0xe5, 0xa8, 0x3d,
		0x61, 0x0d, 0xad, 0x3d, 0x53, 0x94, 0x57, 0xbe, 0xdf, 0xe2, 0x24, 0xbd,
		0xa3, 0x14, 0x24, 0xbe, 0xcd, 0xb2, 0xd2, 0xbd, 0x21, 0xa6, 0xa8, 0x3d,
		0xb9, 0xac, 0x13, 0xbd, 0x61, 0x1a, 0xd8, 0x3d, 0x22, 0x04, 0x43, 0xbd,
		0xaa, 0x5f, 0x4c, 0xbe, 0x62, 0x33, 0xde, 0x3d, 0x2d, 0xbe, 0x07, 0x3d,
		0x6e, 0xdc, 0x00, 0x3e, 0x58, 0x44, 0xee, 0xbd, 0xe4, 0x34, 0xef, 0x3d,
		0x82, 0xdb, 0x01, 0xbe, 0x50, 0xa0, 0xdd, 0x3c, 0xcc, 0x65, 0xa7, 0xbd,
		0x24, 0x28, 0xa6, 0xbd, 0xbc, 0x37, 0x93, 0xbd, 0x69, 0xf3, 0x46, 0xbd,
		0x41, 0xc2, 0x9c, 0xbd, 0x2f, 0x73, 0x28, 0x3d, 0xd3, 0xe0, 0x9a, 0x3d,
		0xaa, 0xec, 0x5a, 0x3d, 0xd7, 0x61, 0xd1, 0xbc, 0x0f, 0x19, 0x80, 0xbb,
		0x10, 0xc1, 0xa0, 0xbd, 0xb2, 0xb8, 0xde, 0x3c, 0x87, 0x50, 0xeb, 0x3d,
		0x5c, 0x05, 0x52, 0x3c, 0x36, 0x9f, 0x0d, 0xbe, 0xac, 0x43, 0xb9, 0x3d,
		0x6a, 0xde, 0xf1, 0xbd, 0x80, 0x6a, 0xe1, 0xbd, 0xd5, 0x86, 0xe6, 0xbc,
		0xc1, 0x8c, 0xe5, 0x3d, 0xdc, 0xec, 0x31, 0xbe, 0xa5, 0x9c, 0xa4, 0x3d,
		0x4f, 0x26, 0xa8, 0xbd, 0x2f, 0x1b, 0x8a, 0xbd, 0xc0, 0x12, 0xaf, 0x3d,
		0xef, 0xbc, 0x94, 0x3c, 0x6a, 0x6e, 0x72, 0xbd, 0x7e, 0x5e, 0x10, 0xbd,
		0xaf, 0xf1, 0x8a, 0x3d, 0xcb, 0x2c, 0x8f, 0xbd, 0x5a, 0xee, 0x1a, 0xbc,
		0x7a, 0x5d, 0xf6, 0x3c, 0x3a, 0x3b, 0x03, 0xbe, 0x03, 0x89, 0xb1, 0xbd,
		0x64, 0x40, 0xc4, 0x3d, 0xbf, 0x49, 0xd4, 0x3d, 0xd5, 0x22, 0x95, 0xbd,
		0x1d, 0xcc, 0x9d, 0xbc, 0xf6, 0xde, 0x87, 0xbc, 0x56, 0x70, 0x1a, 0x3e,
		0xf3, 0xaa, 0xac, 0xbd, 0xe3, 0xab, 0x27, 0xbe, 0x2d, 0x10, 0xea, 0xbd,
		0x1c, 0x12, 0x9a, 0xbd, 0xb8, 0xa5, 0xb3, 0xbd, 0x72, 0x9d, 0xb7, 0xbd,
		0xab, 0x65, 0xf4, 0x3d, 0x92, 0xd4, 0x4f, 0xbe, 0xff, 0xa9, 0xaf, 0xbd,
		0x36, 0xf5, 0x8f, 0xbd, 0xe9, 0xa4, 0x7c, 0x3c, 0x91, 0xc1, 0x9c, 0xbd,
		0xc5, 0xa2, 0x0d, 0xbe, 0xcb, 0x45, 0x4b, 0xbd, 0x99, 0x83, 0x03, 0x3e,
		0x4d, 0x14, 0x39, 0xbe, 0xb3, 0xc8, 0xdb, 0xbd, 0x7f, 0xa0, 0x8d, 0xbc,
		0x95, 0xc6, 0x12, 0xbe, 0xc6, 0x14, 0x83, 0x3d, 0x57, 0x78, 0x5d, 0xbc,
		0x40, 0x4b, 0x8b, 0xbd, 0x17, 0xf0, 0x3a, 0xbe, 0x31, 0x78, 0xfd, 0xbb,
		0xe8, 0x4e, 0x40, 0xbd, 0x21, 0xc2, 0x13, 0xbe, 0xb8, 0xf6, 0x12, 0x3e,
		0xf2, 0x8c, 0xd3, 0x3d, 0x90, 0x81, 0xce, 0xbd, 0x47, 0x85, 0xea, 0x3c,
		0xf0, 0x22, 0xcb, 0xbc, 0xf8, 0xf5, 0x5e, 0xbd, 0x29, 0x72, 0x90, 0xbe,
		0xcf, 0xfc, 0xd7, 0xbd, 0x86, 0xa4, 0x0e, 0xbd, 0xdc, 0xb9, 0x91, 0xbc,
		0x6b, 0x8d, 0x89, 0xbd, 0x99, 0x7e, 0x49, 0xbc, 0x96, 0x3b, 0x75, 0xbd,
		0xb1, 0x21, 0x34, 0xbd, 0xf9, 0x0c, 0xf4, 0xbd, 0x70, 0x1a, 0x1c, 0xbd,
		0x9f, 0x08, 0x30, 0x3e, 0x69, 0x9e, 0x8b, 0xbc, 0xd1, 0x43, 0x7b, 0x3d,
		0x54, 0x67, 0x58, 0xbd, 0x08, 0x8d, 0xe8, 0xbc, 0x79, 0xf2, 0x98, 0xbc,
		0x07, 0xee, 0xff, 0xbc, 0x9e, 0x4f, 0x20, 0xbe, 0x85, 0x55, 0x0b, 0xbd,
		0x7a, 0x21, 0xbf, 0xbd, 0x30, 0x39, 0x04, 0xbe, 0x17, 0x55, 0x27, 0xbc,
		0x90, 0xb0, 0xa9, 0xbc, 0xa2, 0xaa, 0x0d, 0xbd, 0xee, 0x43, 0xde, 0xbd,
		0x5c, 0x48, 0x04, 0xbe, 0x0c, 0x2e, 0x7a, 0xbd, 0x77, 0x4a, 0x4e, 0xbc,
		0x83, 0xf7, 0x2f, 0x3c, 0x27, 0x94, 0x72, 0xbd, 0x60, 0xcb, 0xbf, 0x3b,
		0x92, 0x2c, 0xe0, 0x3d, 0xcd, 0xcf, 0x9b, 0x3d, 0xd9, 0x52, 0x74, 0x3d,
		0x8e, 0x31, 0x10, 0xbd, 0x6f, 0x25, 0x55, 0xbd, 0x6a, 0x32, 0xba, 0xbc,
		0xe3, 0x71, 0x60, 0xbd, 0x95, 0xeb, 0x8f, 0x3d, 0x82, 0xf1, 0xbc, 0x3d,
		0xcb, 0xef, 0xa5, 0xbd, 0x8b, 0xca, 0x19, 0x3d, 0x6c, 0x89, 0xb5, 0xbd,
		0xdf, 0x16, 0x01, 0xbd, 0x76, 0x7b, 0xe3, 0x3c, 0x62, 0xc2, 0x39, 0xbe,
		0xa8, 0x7f, 0xb7, 0x3d, 0x06, 0xef, 0x32, 0xbd, 0x9e, 0xea, 0xca, 0xbc,
		0x18, 0x6a, 0x6e, 0xbd, 0x4f, 0xda, 0x8f, 0xbd, 0xb6, 0x2e, 0x0c, 0x3e,
		0xdd, 0xa9, 0x08, 0x3e, 0x7f, 0xa7, 0x1c, 0x3d, 0x23, 0xe8, 0x72, 0xbd,
		0x48, 0x7a, 0x29, 0xbe, 0xfe, 0xa1, 0xb6, 0xbd, 0xfc, 0x2f, 0x3a, 0x3d,
		0x16, 0xd1, 0x79, 0x3d, 0x43, 0x2a, 0x71, 0xbd, 0xa1, 0x9a, 0x00, 0x3e,
		0x1f, 0xde, 0x7f, 0x3c, 0x37, 0xa0, 0x20, 0xbe, 0x78, 0x57, 0x13, 0xbe,
		0x0f, 0x64, 0x14, 0x3d, 0x16, 0x2c, 0x3e, 0x3d, 0x28, 0x47, 0x7d, 0x3d,
		0xdd, 0xf6, 0x8a, 0x3d, 0x78, 0x77, 0x9c, 0x3d, 0x03, 0x67, 0xc3, 0x3d,
		0x6f, 0x03, 0x79, 0xbb, 0x69, 0x75, 0x1d, 0xbe, 0x05, 0xdb, 0x37, 0xbe,
		0x26, 0xf9, 0xdc, 0x3d, 0x03, 0x7f, 0xca, 0x3d, 0xa5, 0xf1, 0xda, 0xbd,
		0xe3, 0x74, 0xee, 0xbd, 0x50, 0x69, 0xdd, 0xbd, 0xe3, 0xc3, 0x14, 0xbe,
		0x62, 0x9f, 0xc1, 0xbb, 0xcb, 0xc7, 0x26, 0xbe, 0x9f, 0x1f, 0x16, 0xbe,
		0x40, 0x92, 0x88, 0x3d, 0xab, 0xee, 0x1b, 0xbd, 0xd9, 0x23, 0x0b, 0x3e,
		0x94, 0x66, 0x1c, 0xbd, 0xe9, 0xec, 0xcc, 0xbd, 0x11, 0xdf, 0x1b, 0xbd,
		0x97, 0xd2, 0xe4, 0x3c, 0x9e, 0x91, 0x2c, 0xbd, 0xc4, 0x1e, 0x60, 0xbc,
		0xf5, 0xdd, 0xe3, 0x3d, 0x87, 0x3b, 0xbf, 0x3d, 0xe5, 0x67, 0x85, 0x3a,
		0x55, 0x5a, 0xa9, 0xbd, 0x54, 0xc5, 0xc6, 0x3d, 0x49, 0x74, 0xad, 0xbd,
		0x42, 0x45, 0xd0, 0xbd, 0x1e, 0xd2, 0x51, 0x3d, 0xf1, 0x14, 0x15, 0xbe,
		0x38, 0xf5, 0x80, 0xbd, 0x99, 0xb4, 0xfa, 0xbd, 0xe9, 0xc1, 0x0b, 0x3e,
		0x8a, 0xfc, 0x60, 0x3c, 0x22, 0xc7, 0x1d, 0xbd, 0x7b, 0x84, 0x35, 0xbe,
		0x01, 0xb1, 0xfe, 0xbd, 0xaa, 0x41, 0xd1, 0x3c, 0x26, 0xd5, 0xaa, 0xbd,
		0x5c, 0x52, 0xf6, 0xbd, 0x08, 0xd7, 0x4a, 0x3d, 0xd8, 0x1e, 0xce, 0xbd,
		0xb7, 0xee, 0x01, 0xbe, 0x30, 0x91, 0xb0, 0xba, 0x06, 0x16, 0xef, 0x3d,
		0x42, 0xe7, 0x16, 0xbe, 0xe8, 0x71, 0x5f, 0xbd, 0xba, 0xc8, 0xe6, 0x3c,
		0xd0, 0x61, 0x64, 0x3d, 0xee, 0x96, 0x88, 0xbc, 0xf8, 0xa9, 0x01, 0x3d,
		0xa0, 0xbf, 0x2f, 0x3e, 0xb3, 0x90, 0xa8, 0x3b, 0x7b, 0x29, 0x0b, 0xbe,
		0xfc, 0x8c, 0xf1, 0x3b, 0x81, 0x36, 0x18, 0x3d, 0x13, 0x06, 0xd7, 0xbd,
		0x86, 0x96, 0x5f, 0xbe, 0xed, 0xa9, 0xec, 0x3d, 0x37, 0x30, 0x15, 0xbe,
		0x78, 0x45, 0xe5, 0xbd, 0x16, 0x4f, 0x06, 0x3e, 0xcf, 0xdd, 0x1c, 0xbd,
		0x01, 0x74, 0x00, 0xbe, 0x76, 0x61, 0x18, 0xbe, 0x26, 0x87, 0x07, 0x3e,
		0x81, 0xa9, 0x78, 0xbd, 0x1d, 0x23, 0xc3, 0xbd, 0x53, 0x72, 0xd4, 0x3c,
		0xe4, 0x82, 0x37, 0xbd, 0xd6, 0x0f, 0x6b, 0xbd, 0x53, 0xfa, 0x19, 0xbe,
		0x41, 0x83, 0xe3, 0x3d, 0xc2, 0x3a, 0xc1, 0xbd, 0xce, 0x87, 0xcf, 0xbd,
		0x9e, 0x24, 0x92, 0xbd, 0xae, 0x4a, 0x14, 0xbe, 0xdb, 0x52, 0xc4, 0xbb,
		0xa2, 0xbc, 0xba, 0x3d, 0x0c, 0xfa, 0xa2, 0xbc, 0x4c, 0x84, 0xc4, 0xbc,
		0xec, 0x97, 0x75, 0x3d, 0x8b, 0x49, 0xb3, 0x3d, 0xc2, 0xc7, 0x0e, 0xbe,
		0x06, 0xba, 0x1d, 0xbd, 0x38, 0x90, 0x18, 0xbe, 0x6b, 0x6d, 0x01, 0x3e,
		0xe2, 0x1a, 0x32, 0xbd, 0x94, 0x96, 0x24, 0xbb, 0x52, 0x9c, 0x4f, 0x3d,
		0x3d, 0x6e, 0x4b, 0xbe, 0x4d, 0xaa, 0x99, 0x3d, 0x37, 0xea, 0x35, 0xbd,
		0x83, 0xff, 0x78, 0xbd, 0xae, 0x52, 0x2e, 0xbe, 0xfd, 0xeb, 0x68, 0x3d,
		0x01, 0xaf, 0x2d, 0xbe, 0x13, 0x28, 0x30, 0x3c, 0x64, 0x9c, 0x06, 0xbd,
		0x6d, 0xbe, 0x26, 0xbd, 0x7d, 0xb7, 0x9d, 0x3d, 0xe8, 0x48, 0xc5, 0xbd,
		0x63, 0x58, 0x73, 0x3d, 0xa3, 0xee, 0x6d, 0xbd, 0xda, 0xaf, 0x6d, 0xbd,
		0xac, 0x47, 0x0d, 0x3d, 0x56, 0xee, 0xc1, 0x3d, 0x15, 0xe8, 0x02, 0xbe,
		0x89, 0x3e, 0x5c, 0x3d, 0xb6, 0xbb, 0xa8, 0xbc, 0x5e, 0xd9, 0xfa, 0xbd,
		0x75, 0x99, 0xf8, 0x3d, 0x69, 0xce, 0xdc, 0x3d, 0xa3, 0x0f, 0x16, 0xbe,
		0xd9, 0x01, 0xe3, 0xbd, 0x03, 0x7f, 0x91, 0x3c, 0x41, 0x82, 0x26, 0xbe,
		0x25, 0x47, 0xe2, 0x3d, 0xa9, 0xa0, 0x06, 0x3e, 0xa3, 0x2b, 0xca, 0x3d,
		0xed, 0xd5, 0x05, 0x3d, 0x68, 0x60, 0x87, 0xbd, 0xda, 0x71, 0x08, 0xbe,
		0x1a, 0x34, 0xfb, 0x3d, 0xda, 0xa9, 0x09, 0x3e, 0xb1, 0x4d, 0x9d, 0x3d,
		0xc9, 0x0d, 0x12, 0xbe, 0xbe, 0x0d, 0x87, 0xbd, 0x24, 0xa3, 0xa5, 0xbd,
		0xd5, 0x79, 0x03, 0x3e, 0x58, 0xc0, 0x0f, 0xbe, 0x71, 0xb5, 0x0b, 0xbe,
		0x3e, 0xff, 0xc1, 0xbd, 0xcf, 0x2e, 0xb7, 0x3d, 0x7a, 0xeb, 0xf7, 0x3d,
		0x85, 0x86, 0xdb, 0x3b, 0xf6, 0x5a, 0x01, 0xbe, 0x01, 0xa4, 0x87, 0xbe,
		0x77, 0xb6, 0xe9, 0xbd, 0x9f, 0x7a, 0x0e, 0x3e, 0xcf, 0x40, 0x03, 0xbe,
		0x77, 0x21, 0x19, 0x3c, 0xd0, 0x49, 0xe5, 0xbd, 0x8e, 0x51, 0xfc, 0xbd,
		0x44, 0x10, 0x1f, 0xbe, 0xde, 0x51, 0x44, 0x3c, 0xb3, 0xeb, 0x2c, 0x3c,
		0xfe, 0xc7, 0x9d, 0x3d, 0xdf, 0x95, 0xea, 0x3d, 0x00, 0x1f, 0x05, 0x3e,
		0x4b, 0xa6, 0x44, 0x3d, 0x97, 0x1c, 0xbd, 0xbd, 0xe1, 0xfd, 0x12, 0xbd,
		0x93, 0x5a, 0xf9, 0xbd, 0x57, 0xd8, 0xb7, 0x3d, 0x77, 0x0d, 0x00, 0xbe,
		0x31, 0xa2, 0x0e, 0xbe, 0xc8, 0x62, 0x12, 0xbd, 0x97, 0x7e, 0x0d, 0x3e,
		0xfe, 0xb8, 0x0e, 0xbd, 0x3f, 0xb2, 0x0b, 0xbe, 0xda, 0x22, 0xb1, 0x3c,
		0x37, 0xe6, 0xe6, 0xbd, 0xd4, 0xc0, 0x6c, 0xbd, 0xfc, 0xc8, 0xfe, 0xbd,
		0x53, 0x2f, 0xf1, 0x3b, 0x91, 0xcb, 0x62, 0xbd, 0x4b, 0x22, 0xd6, 0x3c,
		0xcb, 0xdb, 0x0b, 0x3e, 0x0a, 0x74, 0x6a, 0x3c, 0x7e, 0xb3, 0xde, 0x3d,
		0xbd, 0x76, 0x7e, 0x3d, 0xc8, 0x8d, 0xbb, 0xbd, 0xd3, 0x9c, 0xcf, 0x3b,
		0xe7, 0x4e, 0x0c, 0x3e, 0x8f, 0xcf, 0x0e, 0xbe, 0x66, 0x2d, 0xab, 0x3c,
		0x9f, 0xec, 0x12, 0xbe, 0xd6, 0xc2, 0x03, 0x3d, 0x44, 0xa4, 0xe5, 0xbd,
		0xa2, 0x52, 0x1d, 0x3c, 0x71, 0x89, 0xb3, 0x3d, 0x99, 0x3b, 0xcc, 0x3d,
		0x02, 0x98, 0x3e, 0x3c, 0x96, 0xfd, 0x19, 0xbd, 0xea, 0x67, 0xff, 0x3d,
		0xb3, 0x00, 0xa1, 0x3d, 0xb8, 0xe7, 0x95, 0x3c, 0x97, 0x53, 0x12, 0x3e,
		0x30, 0xe7, 0x0d, 0xbd, 0xce, 0x30, 0x02, 0x3e, 0xaf, 0xaf, 0x94, 0xbc,
		0xc9, 0xfe, 0x0f, 0xbe, 0x3f, 0xb8, 0x2b, 0x3d, 0x72, 0x3c, 0xfd, 0xbd,
		0x22, 0xa8, 0x96, 0xbd, 0xee, 0x50, 0x16, 0x3e, 0x9d, 0x25, 0xe4, 0x3c,
		0xfa, 0x3c, 0x23, 0xbe, 0x8b, 0x64, 0x14, 0xbe, 0x7c, 0xe3, 0x88, 0x3d,
		0x16, 0x0b, 0xb4, 0x3d, 0x49, 0x45, 0x1e, 0xbe, 0xea, 0x8b, 0xcb, 0xbc,
		0xa0, 0x4d, 0xec, 0xbd, 0x2d, 0xf1, 0x57, 0x3d, 0xc8, 0xb3, 0x47, 0xbd,
